#version: 0.2
E O
Ġ [
EO S
e s
Ġ l
Ġ d
o u
o n
a n
r e
Ġ s
Ã ©
Ġ c
Ġ p
e n
a i
e u
Ġ t
q u
Ġ v
Ġ m
e r
o i
Ġ f
Ġ qu
Ġ a
Ġ n
e t
Ġd e
Ġ !
ou s
l e
a r
an t
Ġ b
Ġl a
i l
o m
ou r
en t
Ġ et
i s
o r
u n
an s
t e
i n
m e
Ġl e
Ġl es
Ġ Ã
Ġ j
Ġ ;
eu r
i t
a s
a u
es t
Ġ r
u r
ai s
Ã ¨
on t
c h
Ġ un
Ġd es
Ġa u
ĠÃ ł
Ġ g
o s
e l
E t
Ġqu i
Ġ en
ai t
Ġd ans
on s
eu x
Q u
t re
u s
Ã ª
Ġc h
Ġ h
Ġqu e
s e
a t
g e
Ġp l
ou t
ai n
c e
om b
Ġ Ã©
r i
an d
Ġp as
v e
a l
a m
Ã© s
n e
Ġd u
Ġv ous
Ġ re
r es
Ġs ur
Ġ est
e m
l es
qu e
oi s
r a
on d
om me
f f
i en
Ġp r
Ġc e
eur s
i r
ch e
i e
u is
Ġp ar
Ġp our
Ã© e
Ġ ?
er s
en d
Ġj e
i v
Ġn e
Ġf l
m es
Ã¨ re
o l
Ġ o
oi r
Ã ¹
L e
Ã ¢
Ġs e
Ġn ous
p r
or t
Ġt out
Ġg r
o y
Ġau x
e au
ou v
i eu
Ã© t
Ġs on
Ġs a
Ġc r
L a
Ġt r
u it
i eux
Ġ in
ar d
oi t
our s
Ġpl us
Ġ :
J e
on n
Ġb r
Ġf r
o t
Ġm on
L es
i re
Ġs ans
omb re
i m
Qu e
el le
I l
Ġd Ã©
il l
b l
Ã ®
Ġt on
a g
o tre
b le
i d
u m
Ġ D
en s
oi n
Ġgr and
Ġun e
Ġf ait
Ġc es
ond e
Ġo Ã¹
V ous
t es
il s
i er
Ġl eur
Ġp eu
Qu i
D e
Ġt ou
ĠÃ© t
oi re
ant s
c l
u i
Ġ ai
et te
Ã¨ s
em p
D ans
a p
a v
Ġs ont
Ã ł
Ġ ou
il le
Ã© r
ĠÃ ¢
ai ent
Ġt ous
Ġt omb
Ã ´
Ġ e
P ar
s t
u l
Ġn os
i ons
ou ff
an g
re n
Ġm a
a c
p l
u e
Ġs i
Ġv oi
ĠD ieu
Ġ C
Ã© n
in e
t u
Ġ S
eu re
Ġv os
m ent
s i
Ġb ien
A u
an ce
Ġs es
Ġg l
ve c
N ous
a ge
e z
i g
i on
Ġ es
Ġd ou
Ġc omme
Ġt u
Ġj our
a y
Ġs ous
ai l
Ġt a
U n
b re
Ã Ķ
an ge
ai re
Ġm ar
Ãª te
S i
d s
j ours
o p
Ġd is
Ġqu and
au x
t s
Å ĵ
Ġd on
Ġb l
ĠÃ ´
C omme
u re
Ġ y
Ġm ain
i el
Ã© es
Ġa r
ant e
a Ã®
d re
o c
Ġd it
Ã© l
Ġt es
Ġv ent
er re
Ġn uit
P our
P uis
a d
o re
ou le
Ġs ouff
Ġc l
Ġt oi
Ġv er
Ġa m
or te
Ãª tre
C e
T out
b e
i ent
Ġ on
Ġs u
Ã© p
Ġa v
om p
or s
it Ã©
Ġr Ãª
os e
iv re
a b
ou p
Ġc iel
ai r
il les
in s
au t
M ais
O n
u t
Ġ il
Ġl eurs
Ġt ra
Ġt emp
Ġm es
Ġm oi
Ġb on
un e
ch er
Ġpr o
pr it
pr Ã¨s
Ġc ette
Ġf ond
Ġqu el
Ġn oir
is s
Ġpas s
Ġfl ot
Ġfr ont
o le
Ġd eux
Ġv otre
Ġa vec
Ġj us
Ġtou jours
Ġdon c
C h
t Ã©
Ã »
Ġt e
Ġv oy
Ġm onde
Ġb eau
Ġen f
Ãª me
at s
end re
bl i
m i
Ġ ent
Ġ im
Ġs uis
Ġc o
Ġc on
Ġc ri
Ġt our
om mes
or me
as s
am ais
ĠÃ¢ me
n es
Ġ A
Ġ B
Ġ R
Ġs eu
Ġp ens
Ġv ie
Ġy eux
Ġs ol
Ġs ort
Ġde v
ont re
S ur
c i
g es
Ġt erre
Ġm ort
Ġn otre
Ġch ar
ve z
ien s
Ġfl am
C ar
F r
a que
c r
c t
g ard
i ers
o b
p le
Ġ M
ou l
Ã© m
Ġv ieux
et s
Ġj amais
Qu and
Ġe ff
O Ã¹
T u
Ġs er
Ġv ers
Ġm e
Ġf ais
Ġr es
Ġr Ã©
Ã¨ res
Ã¢ me
ĠrÃª v
a ce
l er
Ġl ui
er n
Ġf er
Ġf em
ent s
or d
Ġr ien
Ġen c
ĠÃ© p
Ġgl oire
Ã©l as
u es
Ġ J
Ġ V
re m
eu t
Ġa l
Ġn at
Ġb ois
is t
ch es
Ġre gard
oin t
Ġtomb e
E n
a re
b res
d e
h omme
m en
t i
Ã §
Ġ ont
Ġl Ãł
Ġl ivre
Ã© c
Ã© g
Ġc our
Ġp ie
Ġp ren
Ġt ri
Ġf or
Ġr ay
ais s
am p
Ġe x
Åĵ ur
a le
i b
i que
â Ģ
Ġd i
on ne
Ġs ombre
Ġs ang
Ġp uis
en ir
Ġm al
or m
au tre
ais se
ch ant
Ġg u
os es
Ġh omme
at t
Ġfl eurs
Ġtou te
c ou
d ats
m Ã©
Ġ P
Ġs ouv
Ġv u
Ġm ais
Ġa p
Ġch er
ĠÃ© cl
Il s
Ġtra v
Ġtemp s
Ġseu l
Fr ance
D es
N e
i f
i Ã¨re
t r
u v
u x
Ġc ieux
Ġt Ãªte
Ġf eu
Ġf aire
Ġa b
is e
Ġtr is
Ġgrand s
Ġvoi x
ig n
Ġbl an
Puis que
Ġpro f
Ġco eur
O h
c es
p ar
r oit
s es
y r
z ur
Ġ -
Ġd ont
Ġs our
Ġs ent
Ġs ait
Ġc Åĵur
ai g
Ġm er
Ġm Ãªme
Ġh um
ain e
am our
ie z
Ġo b
eau x
id e
Par is
Ġes prit
I I
d r
p e
t our
Ġ T
Ġ ils
Ġ France
Ġl u
ou che
re z
Ġs ain
Ġp er
Ġp le
Ġt rem
qu es
Ġv is
Ġv iv
Ġa s
Ġb as
ĠÃ ª
Ã¨ ve
Ãª t
Ġch ose
Ġh ommes
ĠÃ© c
ra p
Ġpeu t
Ġpeu ple
ap p
Ġsol dats
H Ã©las
f ois
l Ãł
r ont
y st
Â «
Ã ¯
Ġ G
Ġ elle
Ġ âĢ
Ġc ou
Ġv i
Ġv ois
Ġv ol
er t
er ri
oi e
oi se
Ġa t
Ġa prÃ¨s
Ġn om
in c
Ġj ours
au d
Ġch ant
Ġh Ã©r
em ent
Ġtout es
Ġbr uit
oin s
ĠÃ©t ait
Ġquel que
Ġnoir s
Ġfem me
T ou
a ble
f in
h onn
j e
l le
u me
v ous
Ġ ouv
es prit
Ġl um
Ġl aiss
Ġd ire
Ġs oit
Ġs ole
Ġc et
Ġc ar
Ġc ons
Ġc ol
Ġc omp
Ġc oup
Ġp en
Ġp et
Ġv ain
Ġf ont
au v
el les
se z
al l
Ġre n
che z
Ġtr ou
ĠÃ¢ mes
Ġdou x
Ġmain s
Ġsouff le
Ġflot s
Ġres te
D ont
D ieu
S e
U ne
a me
c re
r ai
r ant
s c
t res
Ġ L
Ġ or
es p
Ġd Ã©s
Ġd roit
ou x
Ġs ais
Ġs em
Ã© ch
Ã© ri
Ġc ent
Ġp oint
Ġv en
Ġv ient
Ġa c
ous s
Ġj eu
it Ã©s
Ã¨ bres
Ġch e
Ġch aque
Ġpl eure
Ġre v
iv ers
pr o
ail le
Ã» t
Ġent re
orme z
Ġdev ant
Ġenc or
Ġpie ds
ĠhÃ©r os
A vec
D u
S ans
T on
a zur
c le
e ff
h er
h eur
m pl
Ġ E
Ġ N
Ġ Paris
Ġl ar
Ġd eu
ou e
Ã© ant
Ġp ouv
Ġp ier
Ġv ag
Ġm an
Ġm ont
Ġm ons
Ġm yst
Ġf u
Ġb our
Ġj et
it s
as ard
au r
Ġr ire
Ãª le
Ãª tes
Ġh eure
Ġh asard
Ġpl eurs
Ġre c
Ġre p
Ġfl eur
Ã©t r
ot s
bl ou
ag es
Ġai m
Ġtomb eau
Au x
Ġes p
Ġsu bli
men se
Ġtris te
. .
e ine
h or
i me
t ant
Ġl oin
on g
on ge
Ã© an
Ġc er
Ġc ont
Ġc Ã´
Ġc endre
Ġp re
Ġp orte
ai x
Ġv eut
Ġm il
Ġm eur
Ġf ou
Ġf in
Ġf oule
Ġa ur
Ġa vez
au te
Ã¨ te
Ġdes c
el a
Qu oi
Ġch oses
at ion
ain si
Ġpr is
Ġpr Ã¨s
Ġpar t
oy eux
Ġin f
Ġin s
Par ce
ang es
ac un
ail l
Åĵ il
aÃ® t
Ġjus te
Ġenf ant
Ġchar m
Ġdi ff
Ġtrav ers
oise au
honn eur
Ġche v
Ġmil ieu
C es
C ette
M ar
O u
a che
e il
g ne
h eure
i Ã©
o Ã¹
p uis
r ait
t oi
u d
v es
v ol
y ant
Ġ Je
Ġl oi
Ġl ois
Ġd iv
an n
Ġs c
Ġs in
Ã© cl
Ġc omb
Ġp o
Ġp ort
Ġp ay
qu oi
Ġv a
Ġv oit
Ġv oule
Ġm ur
Ġf ois
Ġf aut
Ġqu oi
ar t
om e
or g
te in
in si
as se
Ġr ois
os se
us e
Ġpl ain
al es
Ġre f
res s
Ġpr Ã©s
oir s
Ġson ge
Ġcr Ã©
Ġcr oy
Ġbr as
Ã® tre
ag ne
ue il
ail les
aÃ® tre
ad is
omp h
Ġim m
Ġflam b
Ġnat ure
Ġprof ond
Ġple in
ĠÃª tes
ĠâĢ Ķ
Ġat t
Ġsole il
Ġvoule z
A insi
M oi
P r
V otre
b r
b out
f s
g r
i z
i le
l eurs
m p
u p
u de
Ã Ģ
Ġ ombre
Ġ ange
Ġ ainsi
Ġl ors
Ġd onn
ou ill
an Ã§
Ġc om
Ġc al
Ġp Ã¢
en c
ai m
Ġv oir
Ġm oins
Ġf i
Ġf ils
Ġa d
Ġde m
ent end
Ġj oyeux
au be
Ġg ard
Ġg Ã©n
Ġen d
Ġch em
Ġh or
omb res
ri e
ri r
Ġpr Ã©
Ġpr os
Ã©t oi
Ġin c
Ġfr oi
Ġai les
Ã´ le
st in
pl end
Ġvoi le
Ġbl eu
Ġam ours
ĠrÃª ve
Ġbon heur
Ġflam me
ti ce
Ġtri omph
rap eaux
sc ur
Ġdeu il
Ġsubli me
A l
T ous
V os
g u
i te
i ci
m Ã©e
n ous
p h
r o
v ant
v el
Ġ ans
Ġ em
Ġ La
Ġ emp
Ġl Ã¢
Ġd orm
an ne
Ġs pe
Ã© ment
Ġc y
Ġc ap
Ġc ontre
Ġp Ã¨re
en f
eu l
Ġv e
Ġv it
Ġv rai
Ġm is
er ont
oi g
oi x
Ġf un
Ġf at
Ġf um
Ġn i
Ġn id
Ġde bout
ous se
Ġb er
Ġb at
Ġj oie
Ã¨ le
Ġh aut
ain s
ain t
ĠÃ© blou
ne z
ir m
ir ais
Ġse re
Ġsa cr
Ġtr op
uit s
ĠdÃ© f
ĠdÃ© v
Ã® me
Ġgrand e
ĠÃ©t oi
ĠÃ©t ern
Ġai g
ul te
ĠC h
Ġmar t
oc Ã©an
Puis qu
iss ant
Ġjus qu
Ġjus tice
Ġvoy ant
Ġcon f
Ġtrem bl
Tou jours
Ġlum iÃ¨re
Ġjeu nes
Ġpier re
Ġman que
A r
O ui
R e
S ont
S oit
a f
b les
b ill
c s
d es
i Ã¨res
m Ãªme
n Ã©
n ent
n oc
o eil
u bli
y s
y re
Ġ "
Ġ er
Ġd ormez
Ġd oig
on te
Ġs ombres
Ġs plend
Ã© v
Ġc eux
Ġp eur
Ġp at
Ġp eine
en ce
Ġt Ã©n
Ġv as
Ġv end
Ġm ai
Ġm et
Ġm our
Ġm or
Ġm Ãª
Ġm ois
Ġm ieux
Ġm ille
er a
Ġf oi
Ġn u
Ġn av
Ġb al
our d
ent e
ent re
is tre
or age
Ġj u
Ġr oi
Ġr iv
Ġr amp
ur ne
Ã¨ ne
ch ent
Ġg ouff
us te
Ġh Ã©las
Ġpl eur
omb e
am ent
Ġre tour
res se
ff re
Ġpar ler
Ã¢ t
oy er
Ġsa ges
Ġcr oire
Ġtr ouv
Ġfr Ã©m
ag n
ier ge
av enir
Ã´ t
Ġsi Ã¨
Ġes s
Ġdou ce
Ġdou leurs
Ġar ri
Ġnuit s
Ġcl o
Tout es
Ġav oir
air ain
Ġpass Ã©
Ġent end
Ġim p
Ġim mense
Ġcon qu
Ġcri me
Ġtour bill
Ġpens if
Ġfem mes
Ġenc ore
Ġal l
Ġpie d
Ġpren dre
Ġray ons
Ġap p
ĠcÅĵur s
Ġsain te
Ġviv ant
erri Ã¨re
Ã©ri eux
her be
Ġpouv oir
aur ore
ĠcÃ´ tÃ©
Ġmeur t
Ġflamb eau
iz on
ĠpÃ¢ le
enc ens
Ġchem in
Ġfroi d
A prÃ¨s
C ontre
E st
E lle
P l
P ren
R ien
S ous
V oi
V ers
V iens
a ve
a Ã¯
b es
c tre
e ign
g er
h Ã©
h is
i ant
i ge
i bre
n t
n ant
o qu
r it
s ons
t Ã©s
Ġl ieu
Ġl Ã©g
ou ve
an ou
re ur
Ġs oir
Ġs ommes
Ġc an
Ġc onn
Ġc ela
Ġp h
Ġp ous
Ġp al
Ġp are
en ant
ai ve
Ġt oit
Ġv eux
Ġv ivre
Ġv oul
Ġm Ã¨re
Ġm ontre
Ġf ar
Ġf us
Ġf id
Ġf ace
Ġf irm
Ġn o
is se
in es
Ġj adis
it iÃ©
it ude
Ġr ou
Ġr ais
Ġr ose
ais e
Ã¨ tes
Ġun ivers
Qu el
Ġch ez
Ġch ange
Ġh id
at ions
ve ill
Ġre l
ien ce
Ġpr om
Ġpr op
Ġpar l
end ant
pr is
Ã©t ait
Ġcr ois
Ġcr oix
Ġin noc
ard s
Ġbr u
ot es
im p
Ġfait es
Ġou bli
ren t
Ġma Ã®tre
ĠS eign
Ġgl aive
Ġmar cher
Pour quoi
Ġcl air
Ġver me
Ġpass er
Ġfront s
Ch er
Ch aque
mi Ã¨re
Ġpens Ã©e
Ġmort s
ist oire
men ce
Ġcour t
Ġfor Ãªt
Ġsouv ent
Ġmais on
Ġprof onde
Ġhum ain
Ġouv er
Ġpet it
Ġtrou ve
Ġvag ue
Ġmyst Ã©rieux
Ġfu y
Ġheure ux
Ġdesc end
Ġsin istre
Ã©cl air
anÃ§ ais
Ġcal me
Ġgard e
ĠgÃ©n Ã©r
Ġspe ctre
enf ant
ĠtÃ©n Ã¨bres
Ġnav ire
Ġgouff re
ĠsiÃ¨ cle
Ġtourbill on
Ġhid eux
ĠSeign eur
A im
D is
L ui
L aisse
N i
T r
a qu
b as
b au
e x
f l
g uste
h um
i ra
l Ã©e
m oi
p er
p les
s si
t h
t ent
u eux
u iv
Â »
Ġ H
Ġ an
Ġ Et
Ġ Tout
Ġ anges
Ġ Â»
Ġl ent
Ġl ut
Ġl aisse
Ġd oit
Ġd rapeaux
re aux
Ġs ens
Ġs oup
Ã© tein
Ġp ri
Ġp aix
Ġp Ã´le
Ġp uits
Ġp itiÃ©
ai me
eu se
eu ill
Ġt ant
Ġt as
Ġt el
qu i
Ġv in
Ġm Ã©
Ġm om
Ġm at
Ġm ers
Ġm ot
er tÃ©
Ġf our
Ġf ort
Ġn ul
Ġn Ã©ant
Ġde puis
ar g
ar bre
Ġb ais
Ġb and
Ġb ra
Ġb uis
Ġb elle
Ġb Ã©n
Ġb ut
Ġb att
te mp
eur es
Ġr oses
ur es
Ã¨ v
ch ais
Ġau tre
Ġau prÃ¨s
Ġau ssi
Ġg en
Ġg ens
Ġg Ã©ant
Ġch amp
Ġch acun
Ġh ib
Ġh aute
se m
Ġpl an
ain es
ce au
ri que
and s
Ġpas se
am b
Ã©s ar
Ã©s us
Ġre mpl
ra ge
ond es
Ġpar mi
Ġpar fois
Ã¢ mes
oy ons
Ġtr ois
onn Ã©
onn er
onn ant
Ġbr ise
Ġfr anÃ§ais
ĠdÃ© g
ĠdÃ© m
ĠdÃ© ch
id es
Ġgrand es
cl am
Ã©r ance
Ã´ tre
Ġvoi les
tu re
op e
Ġdis par
Ġar bres
Ġvent s
Ġsouff l
Ġam i
Ġav ant
Ġav ons
Ġenf ants
Ġco eurs
Ġtour n
Ġvie ill
Ġdev ient
ct oire
Ġeff ra
ĠrÃªv es
ĠJ Ã©sus
Ġtri b
ib ertÃ©
Ġsouv enir
Ġtris tes
Ġblan ch
Ġsour ces
Ġob scur
Ġlu eur
Ġlu ire
Ġtrem ble
Ġas sez
ĠÃ©c um
ĠG r
Tou te
fin i
Ġlaiss ant
Ġcomp ren
esp oir
Ġsem ble
Ġac c
Ġmyst Ã¨re
.. .
hor izon
Ġpre miÃ¨re
Ġdiv in
Ġpay s
Ġcroy ez
Ġfi x
Al ors
Ġfun Ã¨bres
Ġdoig ts
Ġpous si
Ġfirm ament
Ġno ble
Ġrais on
Ġinnoc ents
Ġlent ement
Ġbuis sons
temp s
C et
C eux
F ont
I n
L eur
L ors
M es
M on
N ul
S a
S ois
T a
T oi
a ff
c on
c te
c ueil
f um
h in
h ab
i c
i ce
i ble
j ets
l eur
l it
m ur
m bre
o d
p re
r oi
s p
s s
s us
y m
z e
Ã «
Ã ī
Ġ z
Ġ eu
Ġ ant
Ġ os
Ġ Le
Ġ id
Ġ Vous
Ġ Åĵil
Ġ oiseau
Ġl it
Ġl ieux
Ġl oint
Ġl ys
Ġd Ã©t
Ġd ern
Ġd erriÃ¨re
ou en
Ġs out
Ġs Ã©p
Ġs aig
Ġs auv
Ã© ra
Ġc re
Ġc or
Ġc in
Ġc it
Ġc at
Ġc ra
Ġc ouv
Ġc av
Ġp ou
Ġp il
Ġp ur
Ġp ont
Ġp Ã¨res
Ġp auv
en n
en v
eu ses
Ġt Ã¢
Ġt yr
Ġt Ãªtes
Ġt amb
Ġv ou
Ġv eu
Ġv il
Ġv ont
Ġv ils
Ġv ille
Ġv Ã©r
Ġv illes
Ġv ole
Ġv iens
Ġv ierge
Ġm ent
Ġm it
Ġm Ã¢
Ġm aud
er nes
Ġf an
Ġf ai
Ġf ant
Ġf am
Ġf uit
Ġf ange
Ġf Ãªte
Ġf illes
Ġf ut
Ġf iers
Ġf osse
Ġa zur
Ġn on
Ġn ombre
Ġn oire
Ġn ouve
ar r
ar te
ant ique
Ġb ou
Ġb or
Ġb out
Ġb Ã¢t
Ġla ur
or ge
or mi
un ivers
te z
in t
in fini
Ġj ou
Ġj al
as tre
Ġr i
Ġr o
Ġr oule
Ġr Ã©p
Ġr app
ur ieux
ur ope
Ã¨ che
Ã¨ mes
ch Ã©
Ġau tour
Ġau guste
Ġg re
os ses
Ãª ts
Ġch ans
Ġh onn
ĠÃ© ch
ien nent
Ġpr Ãªtre
ir s
ir ant
Ġpar le
Ġpar fum
ouv re
Ã©t ant
Ã©t ais
Ã©t ern
Ġson ges
Ġsa v
Ġsa ge
Ġcr o
Ġcr is
Ġcr ain
Ġtr omp
Ġbr on
Ġbr ume
im mense
ĠdÃ© b
ĠdÃ© l
ĠdÃ© p
Ã® t
ag an
Ġpeu ples
ĠÃ©t inc
ui f
Ġai r
Ġai me
av ais
ĠÃ¢ ge
Ġtomb er
ang er
ĠC Ã©sar
Ã©n al
ĠS aint
ment s
Ġjour n
Ġmar bre
Ġdis t
Ġdon ne
Ġar d
Ġtemp Ãªte
Ġbon ne
Ġquel ques
Ġflot te
Ch acun
Ġtour ment
ass er
ĠR ome
ĠR hin
ĠR ouen
Ġseu il
Ġvie illes
Ġflam mes
cr o
Ġser a
ĠrÃ© al
ĠrÃªv eurs
Ġal ors
Ġnat ions
Ġregard e
Ġpren d
Ġray on
Ġex p
âĢ Ķ
Ġsang l
Ġpuis s
Ġcher cher
Ġseul s
uv Ã©nal
Ġfeu illes
Ġab je
Ġab Ã®me
aig le
II I
Ġple ins
Ġas s
ĠÃª tre
ĠâĢ ĵ
Ġvi ctoire
Ġvol er
Ġpen se
Ġpen che
Ġpet its
all ais
Ġsem bl
Ġpleure r
pro che
Ġlar ges
Ġvag ues
Ġmont s
Ġmons tr
ong temps
Ġcer cueil
Ġfin i
Ġdesc endre
Ġins ulte
Mar che
org ueil
ĠcrÃ© ation
Ġimm onde
Ġlors que
Ġend ormi
Ã©toi les
Ġinc onn
ĠlÃ¢ che
Ġdorm ir
Ġve ille
Ġfat ale
Ġfum Ã©e
Ġber ceau
Ġaig les
Ġmart yr
Ġconf us
Ġjeunes se
ubli que
Ġvas te
Ġmour ir
Voi lÃł
Ġcan ons
Ġfar ouche
Ġfid Ã¨le
imp orte
Cher chez
sem ble
ĠdÃ©ch ire
Ġpoussi Ã¨re
con que
ĠsÃ©p ul
Ġpauv re
Ġlaur iers
A c
A d
A h
A n
C r
C our
D rapeaux
E urope
G ard
S es
S on
S uiv
T ant
V ois
a te
a ch
a vez
b ut
c oup
c iens
d u
e in
g n
g ue
h ir
h ui
h ale
h istoire
i p
i es
i eur
i Ã©s
i mes
i ques
j ourd
l et
l am
l ise
m b
m ens
m Ã©es
n ons
n orme
p t
p as
p ers
p Ã¨re
p ide
r Ã©
s Ã©
t ra
t enant
v en
v is
y dre
Ġ F
Ġ ait
Ġ eux
Ġ Qu
Ġ Que
Ġ onde
Ġ Tu
Ġ Â«
Ġ ann
Ġ ici
es se
Ġl ang
Ġl une
Ġl Ã¨ve
Ġl ibre
Ġd Ã©tr
Ġd ress
Ġd irais
on c
on ap
on fl
an itÃ©
re f
re t
Ġs ou
Ġs Ã©
Ġs al
Ġs ois
Ġs Ã¨ve
Ã© ants
Ġc au
Ġc el
Ġc elle
Ġc oin
Ġc itÃ©
Ġc amp
Ġp oit
Ġp oin
Ġp Ã©n
Ġp ouss
en ait
ai le
ai res
eu f
Ġt onn
Ġt erri
qu el
Ġv o
Ġv ais
Ġm ou
Ġm ens
Ġm oin
Ġm ul
Ġm orte
Ġm auv
Ġm Ãªle
Ġm ots
Ġm ira
er c
er te
er me
er ain
oi res
Ġf il
Ġf it
Ġf au
Ġf ra
Ġf ol
Ġf ille
Ġf orte
Ġf aute
Ġf oyer
Ġf urieux
Ġqu it
Ġqu elle
Ġa st
Ġa Ã¯
Ġn ue
Ġn ob
Ġde mi
ous e
le z
ar is
ant es
Ġb omb
Ġb oit
Ġb ord
Ġb oue
Ġb ann
Ġla v
om pl
our ne
our agan
is sez
ans f
it er
au ra
au ff
est in
Ġr u
Ġr it
Ġr os
Ġr ac
Ġr age
Ġr oul
Ġr ame
ur Ã©s
Ã¨ me
Ã¨ ce
ont Ã©
Ġg out
Ġg orge
Ġqui conque
Ġen vol
ait s
us Ã©
us tre
Ãª mes
Ġch au
Ġch ants
Ġch aÃ®
Ġh au
Ġh ard
Ġh onte
Ġh aÃ¯
Ġpl is
ĠÃ© g
ĠÃ© v
ĠÃ© norme
ri v
ri ble
am as
Ã©s or
Ġdu re
Ġre m
Ġre t
ien ne
Ġpr in
che vel
Ġpour quoi
ers onne
end Ã©e
Ġne ige
Ġo re
Ã¢ tre
Ã¢ ne
Ġgr onde
oy ez
Ġtr Ã©sor
Ġin d
Ġin st
Ġin qui
Je anne
Ġbr an
Ġbr in
Ġbr Ã»
Ġfr iss
ot Ã©
Ġmon te
ill ions
id Ã©e
Ġces se
De puis
Ġtou cher
ĠÃ©t r
cl ame
Ġai l
Ġai mÃ©
av ant
av ent
Ã©r Ã©
Ã´ me
Ġe Ã»t
ul p
ac c
ac Ã©
pl or
ue ill
Ġvoi lÃł
ĠS eine
Au tour
ig ne
Ġdou c
Ġdou te
ay ant
Ġmar che
op pro
Ġdis ent
Ġmain tenant
Ġar mÃ©e
Ġsouff ler
Ġcl Ã©ment
Ġver tu
Ġam our
Ġsu b
Ã©p Ã©e
ab el
ab Ã®me
oup e
aut res
Ġtra Ã®
Ġtra his
Ġtemp le
Ġpro bl
Ġpro jets
iss ants
Ch ant
Ġvoy age
Ġbeau tÃ©
Ġbeau coup
Ġenf lam
Ġcon te
ĠA l
Ġpens eur
Ġsort ir
Ġterre ur
cr it
ct ion
ob es
Ġeff ar
ĠrÃªv ant
ĠrÃªv ions
Ġfer me
Ġfer mÃ©
ĠJ uvÃ©nal
ĠV endÃ©e
Ġal ler
Ġnat ion
En tre
autre fois
Ġgu eux
cou rez
Ġsouv erain
ĠÃ©cl os
ĠÃ©cl at
if s
ign ore
Ġblan c
Ġblan cs
Ġob stin
dr ais
dr ait
Ġsain ts
Ġvis ions
Ġvis age
Ġbas se
app elle
oise aux
Ġchant er
Ġsole ils
Ġcoup s
Ġvain c
esp ace
ĠdÃ©s ert
Ġsais on
Ġcent re
Ġjeu ne
ĠE sp
Ġlar me
Ġpier res
Ġbour reaux
Ġaim er
Ġesp oir
Ġcer v
Ġpre nez
Ġmeur tre
Ġaur ore
Ġcharm ant
Ġdiff orme
Ġchev eux
Ġsc ience
Ġcomb at
Ġplain dre
ĠprÃ©s ent
Ġprofond s
Ġatt end
Pr Ã¨s
Ġlors qu
Ġdem eure
Ġhor rible
ĠprÃ© f
Ã©toi le
stin ct
ph Ã¨re
Ġcy gne
Ġmis Ã©ra
Ġnid s
ĠÃ©blou i
Ġsere in
Ġsere ine
ĠdÃ©f end
ĠÃ©toi le
ĠÃ©tern el
ĠÃ©tern elle
Ġmart yre
Ġer rant
Ġpat rie
Ġmor ne
Ġju ge
Ġriv age
ffre ux
Ġsages se
Ġess aim
Pren ds
ĠlÃ©g ion
Ġconn aÃ®t
Ġoubli Ã©
Ġverme il
ĠgÃ©nÃ©r aux
Aim ons
Ġan ciens
Ġmom ent
Ġbais er
Ġgen oux
Ġhib oux
Ġeffra yant
Ġtrib un
Ġsouvenir s
ĠGr and
Ġdern ier
Ġcin q
Ġtyr ans
Ġchans ons
Ġbron ze
Ġtourment e
Ġmonstr ueux
ĠsÃ©pul cre
onap arte
Ġpoit r
Ġmul ti
Ġast res
Ġnob les
Ġrame aux
Ġgout te
oppro bre
A v
A ime
A vant
B r
B elle
C ont
C ri
C ela
D ame
D ormez
D onc
F ais
G r
I V
I s
J us
J amais
L eurs
L Ãł
M a
M e
M ur
M ont
M ontre
N om
N os
N otre
O uv
P eu
P Ã¢
P eut
P are
P aix
P ersonne
S al
S ol
S ort
S ouv
S eul
S oyons
T el
T rem
V a
a z
a os
a tre
a prÃ¨s
a Ã§
c c
c y
c ts
c ad
c Ã©an
c ience
d en
d it
d at
d out
d Ã©e
d ieux
e Ã»t
f e
g s
g le
g eur
g Ã©s
g eurs
g ir
h e
h ors
i Ã¨
j et
l Ã©
l ant
l at
l ui
m er
m is
m in
m ine
m ure
m Ãªle
n u
n Ã©e
n aise
o eur
o ge
o che
r y
r ou
r il
r as
r Ã©s
r Ã©e
r ob
t out
t ri
t end
u le
u te
u aire
v ons
v ir
Ã Ĭ
Ġ ir
Ġ Qui
Ġ Par
Ġ Un
Ġ erre
Ġ Mais
Ġ OÃ¹
Ġ eut
Ġ Ne
Ġ eaux
Ġ ignore
es te
Ġl ou
Ġl iv
Ġl ions
Ġl ion
Ġl ouche
Ġl Ã¨v
Ġl ibertÃ©
Ġl ongtemps
Ġd or
Ġd ra
Ġd ieux
Ġd estin
ou ches
ou Ã¯
an e
an aris
re l
re r
Ġs t
Ġs oi
Ġs il
Ġs au
Ġs omme
Ġs uit
Ġs tu
Ġs cr
Ġs yst
Ġs aur
Ã© on
Ã© ve
Ã© al
Ġc uis
Ġc ours
Ġc ad
Ġc oule
Ġc ime
Ġc ueill
Ġp ant
Ġp Ã¨
Ġp os
Ġp res
Ġp ap
Ġp Ã©r
Ġp ut
Ġp Ãªle
Ġp resse
Ġp endant
Ġp ein
en se
en cl
en vol
eu ves
eu gle
Ġt er
Ġt end
Ġt ours
Ġt ient
Ġt endre
Ġt ord
Ġt ente
Ġt irant
Ġv om
Ġv aut
Ġv aisse
Ġv ide
Ġv all
Ġv otÃ©
Ġm ant
Ġm as
Ġm ange
Ġm aux
Ġm Ã©m
Ġm ord
Ġm Åĵur
Ġm Ã©ch
Ġm use
Ġm ouill
Ġm ousse
Ġm Ã¨ne
Ġm agn
Ġm oqu
Ġm ondes
Ġm anger
Ġm illions
er ai
er ait
er res
er be
oi ds
Ġf ri
Ġf ers
Ġf ier
Ġf ig
Ġf aÃ®
Ġf orme
Ġf rap
Ġqu atre
Ġa g
Ġa yant
Ġn omme
Ġn oc
et tes
Ġde hors
Ġ! ...
le ment
ar c
ar tÃ©
ant re
Ġb ons
Ġb les
Ġb ass
Ġb oul
Ġb ontÃ©
Ġla b
Ġla s
Ġla mb
il es
il on
om es
om mence
ent ent
or es
or mes
te l
te au
te aux
in st
in ue
in gu
Ġle v
Ġj as
Ġj ette
Ġj oue
Ġj uif
it Ã´t
as tres
au ds
au de
au pas
est Ã©
Ġr is
Ġr Ã¨
Ġr Ã©s
Ġr ap
Ġr ad
Ġr omp
Ġr onge
Ã¨ bre
Ã¨ ves
ch ers
Ġau st
Ġau be
Ġau tant
Ġg ri
Ġg Ã©ants
Ġg erme
Ġg az
el ant
Ġen semble
us s
Ãª ne
Ġch r
Ġch as
Ġch ante
Ġch aos
Ġch ute
Ġh eur
Ġh ur
Ġh ag
Ġh ist
Ġh aine
Ġh eures
ge ois
Ġpl ais
Ġpl omb
Ġpl ace
Ġpl aine
Ġpl aÃ®t
out ant
ce p
ce mbre
ĠÃ© l
ĠÃ© tein
ĠÃ© chevel
ri es
and is
al s
al iers
am us
am bre
Ġre g
Ġre pr
ra te
ond er
ff it
Ġpr Ãªt
Ġce ci
Ġpar d
Ġpar ole
Ġpar adis
Ġpour s
end ue
iv er
Ġne f
Ġfl Ã©tr
Ã¨re nt
ol t
Ġo ff
Ġo cÃ©an
Ã¢ che
Ġse c
Ġse in
Ġse cou
Ġse cre
oy en
ouv ante
ieu se
Ã©t aient
Ġcr Ã©e
Ġcr oit
Ġcr Ã¢ne
Ġtr ansf
Ġin t
Ġin stinct
Ġfr Ã¨re
Ġfr uits
ire r
im mens
ĠdÃ© c
ĠdÃ© cl
ĠdÃ© br
ill ustre
bl er
Ã® che
ĠD ante
ĠD onne
ier ges
De v
De vant
Ġtou che
ĠÃ©t aient
ĠÃ©t iez
ĠÃ©t onnÃ©
cl av
Ġai d
emp ort
emp orte
emp lit
ap ens
ap pro
av ons
av oir
Ġtomb ait
Ã´ ne
Ã´ les
ac es
ac cou
Ġvoi e
Ġvoi ci
ĠS ur
ĠS at
ĠS par
si eurs
Ġbien s
Ġgl obes
ig u
ig es
ay ons
bre uv
Ġmar ch
Ġmar chais
Ġdis s
Ġdis ait
Ġdis pers
Åĵ u
Ġbl Ãªmes
Ġar bre
oc s
Ġvent re
Ġsouff re
Ġcl ous
Ġcl art
Ġcl artÃ©
Ġver t
Ġver te
Ġver se
Ġver ts
Ġver ront
Ġam er
Ġam Ã¨re
orte z
Ġsu p
Ġsu aire
Ġsu per
Ġsu ffit
Ġav eugle
ab ri
ab les
Ġtemp Ãªtes
Ġmes ure
Ġquel s
Ġquel qu
iss ons
Ġpass ant
Ch ar
Ã» tes
Ġvoy ais
Ġvoy ait
Ġvoy ons
Ġvoy ions
Ġvoy ez
Ġbeau x
Ġcon v
Ġcri e
Ġcri mes
ass ins
ĠA th
ĠB abel
ĠB onaparte
Ġpens er
Ġvie ille
Ġsol it
Ġsol dat
Ġchar s
gard e
ob scur
ĠM ar
oul eurs
Ġeff ort
Ġeff ront
Ġser ais
Ġser ait
Ġser ment
Ġres p
ĠrÃ© veill
ĠrÃ© clame
Ġfer ait
ĠÃ©p er
ĠÃ©p anou
ĠV euill
Ġregard er
Ã©c out
Ã©g lise
Ġcour b
Ġpren ds
Ġfor ge
Ġfor Ãªts
Ġray onne
Ġex il
Ġpuis que
Ġmal heur
orm ie
Ġgu erre
Ġgu erri
Ġgu erres
mÃ© rique
ĠP h
Ġcher che
Ġcher chent
Ġtrav ail
if ique
uv ette
Ġfeu ill
ign or
Ġblan che
par aÃ®tre
Ġsour ire
Ġhum ble
Ġhum aine
Ġsain t
Ġper du
Ġvis ion
Ġviv ants
Ġviv ante
Ġas tre
Ġbas t
Ġcou chant
Ġcou des
Ġcou chÃ©
Ġvi ce
Ġnom s
Ġbruit s
Ġlum in
Ġlum iÃ¨res
Ġlaiss Ã©
Ġlaiss ons
Ġcons cience
Ġcol l
Ġcol ombe
Ġcomp as
Ġcomp agn
Ġpet ite
Ġren c
ĠL ibertÃ©
Ġentre r
eff ace
eff euill
Ġlar mes
Ġdeu ils
Ġmont agne
Ġmons tres
Ġmons ieur
Ġfu yant
Ġbour geois
Ġjet Ã©
Ġrep ousse
Ġesp Ã©rance
Ġsubli mes
hor reur
Ġcont ent
Ġcont inue
Ġpris on
Ġpart out
Ġinf Ã¢me
Ġinf Ã¢mes
Ġins ul
aill on
Ġdiff Ã©
vol ut
Ġdiv ins
Ġsc ulp
Ġcomb ats
Ġcomb att
Ġpo Ã¨te
Ġpo Ã¨tes
Ġport es
Ġmur ailles
Ġmur mur
org ie
Ġplain es
ĠcrÃ© at
Ġdonn er
Ġcom pris
Ġad or
Ġdem and
entend s
entend ais
ĠgÃ©n ie
Ġend ormie
ĠprÃ© d
Ġpros p
ici le
vel op
Ġem br
Ġem bau
Ġcap it
Ġmis Ã¨re
Ġsacr Ã©s
Ġsacr Ã©e
Ġtrembl er
Ġtrembl ant
Ġtrembl ants
des sus
Ġsplend eur
Ġsplend ide
Ã©v Ã¨re
Ã©v anou
ĠmÃª l
ĠmÃª mes
Ġnu Ã©e
Ġbal ance
Ġpleur ant
Ġtrouv Ã©
Ġtrouv ons
ĠfrÃ©m issants
Ġarri ve
Ġclo aque
Ġconqu Ã©r
Pl us
hÃ© on
Ġph il
Ġpal ais
Ġpare ils
Ġtoit s
Ġvoul u
Ġmontre r
Ġrou ge
Ġunivers el
Quel qu
Ġrel ig
Ġouver ts
Ã©clair s
aqu ilon
bau che
hum ble
Ġlut te
Ã©tein dre
Ġpri Ã¨re
ĠmÃ© pris
Ġfour naise
ĠbÃ©n it
ĠdÃ©m ons
Ġsouffl ets
Ġvieill ard
Ġsemble z
Ġacc ompl
Lors que
Ġcit oyen
Ġtamb ours
Ġvou drais
ĠvÃ©r itÃ©
Ġmit r
Ġfai te
Ġnouve aux
Ġbor ds
ĠbÃ¢t on
Ġjal oux
Ġcrain te
ĠdÃ©b ord
Ġjourn al
Ġdist ingu
Ġard ente
ĠrÃ©al itÃ©
Ġmartyr s
Ġcel ui
Ġmens onge
Ġmoin dre
Ġmauv ais
Ġmira cle
Ġfra Ã®che
ĠaÃ¯ eul
Ġenvol Ã©
ĠchaÃ® ne
ĠhaÃ¯ r
Ġore illes
Ġind ign
Ġinst ant
Ġbran ches
ĠbrÃ» le
Ġdouc eur
Ġprobl Ã¨me
Ġconte mpl
Ġeffar Ã©s
Ġvainc us
Ġcerv elle
Ġpoitr ine
Ġmulti pl
Sal u
Sol dats
Souv ent
Ġstu pide
Ġsyst Ã¨mes
Ã©ve ille
Ġcad av
ĠpÃ¨ se
Ġvaisse au
Ġmant eau
ĠmÃ©m oire
ĠmÅĵur s
Ġfig ure
Ġnoc t
Ġbles se
ĠrÃ¨ gne
Ġhag ard
Ġrepr Ã©s
Ġsecre t
ĠdÃ©br is
Ġclart Ã©s
Ġsuper bes
Ġguerri ers
A p
A s
A t
A ur
A us
A mi
A fin
A lle
A ss
B ra
B ien
C l
C al
C ol
C ouv
C ouche
C onte
C anaris
D Ã©l
D Ã©cl
D erriÃ¨re
E h
E x
E mpl
F l
F eu
F our
F ait
G u
H ur
H omme
H eure
I t
J et
J oyeux
L ar
L oin
L ongtemps
M ai
M et
M or
M Ãª
M ille
M Ãªme
M ets
M aÃ®tre
M aint
M onte
N on
N oirs
P en
P le
P as
P endant
R is
R est
R end
R ome
R entre
S em
S ache
S up
S itÃ´t
S ortez
S Ã©vÃ¨re
T es
T emp
T Ãªte
T erre
T endre
T ourne
T andis
V I
V i
V ont
V iv
V oy
V id
V II
V iennent
V III
V olt
a h
a chez
a ffreux
b on
b an
b er
b it
b Ã»
b ert
c k
c an
c Ã©
c en
c al
c les
c Ã©es
c ains
c ule
d i
d res
e Ã´le
e reur
f aits
g t
g les
g ance
g nes
g ique
g rate
h an
h eurs
h Ã©e
h ommes
h Ã©m
h yr
h Ã¨te
h ym
h ydre
h iver
i qu
i at
i ve
i onn
i ance
j our
j Ãł
j estÃ©
l ir
l aient
l Ã¨ve
l ys
l oge
m on
m Ã©s
m ins
m ple
m ets
m pe
m agne
n n
n er
n ier
n aud
o les
o eurs
o Ã¯
o Ã»t
p s
p es
p Ã©
p ent
p res
p Ã©e
p ren
p oint
p iter
r in
r ais
r us
r ain
r al
r ois
r ance
r ante
r ist
r he
s ant
s ent
s ort
t on
t il
t it
t ait
t im
t ern
t ache
u er
u les
u ire
u ette
v u
y l
y le
z ar
Ã Ĥ
Ġ us
Ġ Il
Ġ ang
Ġ Nous
Ġ Åĵ
Ġ ivre
Ġ Fr
Ġ Quand
Ġ En
Ġ ombres
Ġ urne
Ġ Pourquoi
Ġ ifs
Ġ oiseaux
Ġ Is
Ġ illustre
es s
es oin
es ses
es clav
Ġl i
Ġl our
Ġl is
Ġl ait
Ġl uit
Ġl ange
Ġl ents
Ġl iez
Ġl inc
Ġl oue
Ġl yre
Ġl ourd
Ġd r
Ġd os
Ġd ort
Ġd ieu
Ġd ore
Ġd orme
Ġd ents
Ġd rap
Ġd Ã»t
Ġd Ã´me
ou re
ou eux
ou Ã©e
on e
on ce
on Ã§
on ces
an i
an qu
an ch
an im
an ces
an ime
an imes
re in
Ġs om
Ġs at
Ġs ot
Ġs im
Ġs ill
Ġs Ã©n
Ġs Ã»
Ġs oul
Ġs ots
Ġs oirs
Ġs ouill
Ġs quel
Ġs phÃ¨re
Ġs oeur
Ġs cep
Ã© b
Ã© qu
Ã© tre
Ã© ante
Ã© cr
Ã© blou
Ã© ales
Ġc u
Ġc as
Ġc ire
Ġc ul
Ġc op
Ġc Ã©l
Ġc ale
Ġc aisse
Ġc itÃ©s
Ġc ache
Ġc af
Ġc ierge
Ġc ave
Ġc urÃ©s
Ġc amus
Ġc ouleurs
Ġc uvette
Ġc zar
Ġp u
Ġp an
Ġp or
Ġp eux
Ġp ain
Ġp op
Ġp ose
Ġp ommes
Ġp rem
Ġp ages
Ġp ud
Ġp ress
Ġp rie
Ġp ubli
Ġp ublique
Ġp oids
en u
en ri
en ille
en Ãªtre
en fin
en cre
en velop
ai e
ai ri
eu le
Ġt ent
Ġt or
Ġt it
Ġt ais
Ġt al
Ġt ard
Ġt ire
Ġt aille
Ġt ress
Ġt iennent
Ġt iÃ¨
qu ins
Ġv ant
Ġv al
Ġv ien
Ġv Ã©n
Ġv endre
Ġv ib
Ġv autre
Ġv aine
Ġv Ã´tre
Ġm ous
Ġm in
Ġm ir
Ġm ouv
Ġm Ã©t
Ġm ag
Ġm ors
Ġm Ã©c
Ġm yr
Ġm ouche
Ġm Ã¢t
Ġm uette
er ra
er ie
er ts
er Ã§
er rain
oi es
Ġf eux
Ġf ard
Ġf av
Ġf ass
Ġf Ã©c
Ġf Ã»t
Ġf aim
Ġf aÃ§
Ġf aces
Ġf enÃªtre
Ġqu ar
Ġqu est
Ġa ct
Ġa ffreux
Ġa breuv
Ġn Ã©
Ġn ar
Ġn au
Ġn us
Ġn ain
Ġn ouv
Ġn im
Ġn ord
Ġn ues
Ġn aÃ®t
Ġn aÃ®tre
Ġn oueux
et Ã©
Ġde gr
le x
ar que
ar ra
ant eurs
Ġb o
Ġb ri
Ġb oire
Ġb ul
Ġb Ãªte
Ġb Ã»
Ġb ats
Ġb ise
Ġb aig
Ġb ouche
Ġb elles
Ġb ouss
Ġb esoin
Ġla ss
il ibre
ent irs
is es
is Ã©
is te
or n
or ien
or ieux
or ds
un i
in f
in Ã©
in ent
ĠÃ ī
ĠÃ Ķ
Ġj ard
Ġj oint
Ġj aill
as p
as si
as ile
au b
au l
au m
au rez
est i
est er
Ġr om
Ġr us
Ġr uis
Ġr oy
Ġr um
Ġr av
Ġr ang
Ġr ues
Ġr are
Ġr oue
Ġr af
Ġr iant
Ġr onces
Ġr ester
ur ge
ur nes
Ã¨ les
Ã¨ nes
Ã¨ de
ont ents
ch ons
ch us
ch ange
ch aÃ®
ch auff
Ġun ique
Ġdes sus
Ġau d
Ġau jourd
Ġg al
Ġg ra
Ġg aÃ®
Ġg Ã©m
Ġg ib
Ġg onfl
Ġg eÃ´le
os si
os op
os sÃ©
el l
el er
el ais
Ġen se
us cule
Ãª que
Ãª tu
Ãª nes
Ġch ois
Ġch ien
Ġch Ã¢
Ġch air
Ġch ass
Ġch iens
Ġch aud
Ġch asse
Ġch asser
Ġch Ãªne
Ġh Ã¢
Ġh uit
Ġh orm
Ġh istoire
Ġh ym
Ġh ydre
se au
at on
at eurs
at ome
Ġpl u
Ġpl at
Ġpl ats
Ġpl uv
Ġpl ume
Ġpl ong
Ġpl onge
Ġpl af
out s
out er
out um
out rage
omb rage
ĠÃ© b
ĠÃ© tre
ĠÃ© cou
ĠÃ© plor
ri re
ri Ã©t
and rin
al v
al ie
al ors
al cy
am ment
am br
Ã©s ie
Ġre ine
Ġre proche
Ġre but
Ġre dout
Ġre jet
res ses
Ġsur gir
em ents
que z
ra v
ra ble
ra cher
ond elle
ond Ã©es
ff e
ff rir
Ġpr Ãª
Ġpr Ã©t
Ġpr oie
Ġce in
ir ai
ie ds
uis e
Ġpar s
Ġpar ce
Ġpar aÃ®t
Ġpour tant
Ġpour rait
Ġpour rit
Ġpour point
end s
iv resse
Ġne fs
Ġfl Ã©t
Ġfl oc
Ġfl att
Ġfl Ã¨che
Ġfl euves
ol a
ol Ã©on
Ġo eil
Ġo dieux
Ã¢ ge
Ã¢ ce
Ã¢ ble
Ã¢ pre
Ġse pt
ort on
ort un
Ġgr ains
Ġgr osses
Ġgr oupe
Ġgr Ã¨ves
oy Ã©e
oy ante
ouv elle
ouv rent
Ã©t ins
Ã©t inc
Ã©t able
Ã©t her
Ã©t ude
Ġson ger
Ġson geur
Ġsa c
Ġsa p
Ġsa bre
Ġsa chez
Ġcr oul
Ġcr amp
Ġcr Ã©tins
Ġtr ous
Ġtr Ãª
Ġtr Ã¨s
Ġtr Ã©p
Ġin tr
Ġin fin
Ġin eff
Ġin gr
Ġin hum
Ġin vis
Ġin ouÃ¯
Ġin grate
onn es
onn aient
Ġbr us
Ġbr ill
Ġbr ille
Ġbr oc
Ġbr ins
Ġbr ouill
Ġfr uit
Ġfr Ã¨res
Ġfr anch
im ent
im ons
ĠdÃ© n
ĠdÃ© mence
ĠdÃ© cro
ĠdÃ© rob
ĠdÃ© cembre
ĠdÃ© jÃł
ill iers
bl Ã©
bl ie
Ã® mes
ag eux
ag ite
id i
id on
id Ã©al
ĠD up
Ġgrand eur
Ġfait s
ier re
ĠÃ©t ant
ĠÃ©t onn
ĠÃ©t ouff
ĠÃ©t roit
cl ave
Ġai le
Ã¨s ent
emp ereur
ap ais
ap olÃ©on
av id
Ã©r itÃ©
ĠÃ¢ pre
Ġtomb es
Ġtomb Ã©
Ġtomb eaux
Ã´ te
Ã´ tres
Par courez
Par tout
ul er
ren ts
Ġma jestÃ©
ac re
pl aud
pl ong
Ġsi ff
Ġsi gne
Ġvoi es
ĠC e
ĠC art
ĠC aton
Ã©n us
Ã©n orme
tu mes
ĠS i
ĠS am
ĠS icile
Au tant
Au tri
Ġgl iss
Ġgl oires
Ġgl acÃ©
Ġgl orieux
ig re
ig ine
Ġes qu
Ġdou ces
Ġdou leur
Ġtu Ã©
ail ler
Ġmar in
Ġmar chant
Ġmar chez
Ġmar teau
Ġdis e
Ġdis ais
Ġdis ons
Ġdis aient
Ġdis tr
Ġdon j
Ġbl Ã¢me
Ġar g
Ġar mes
Ã©l Ã¨ve
ad e
ad or
ad ore
ad ress
ore r
Ġsouff les
Ġsouff rez
Ġsouff rir
Ġcl Ã©m
Ġtoi le
Ġver rait
Ġam ie
Ġam ants
Ġam bit
ient Ã´t
Ġon gles
Ġsu cc
Ã©p ar
Ã©p aiss
Ã©p ublique
Ã©p hyr
Ã©p uscule
Ġav ent
Ġav ait
ivre z
ab be
ab ouss
oup eau
aut an
Ġtra Ã®tre
Ġtra hir
Ġtra gique
Ġmes sieurs
Ġpro d
iss ait
Ġpass es
Ġpass ent
Ġpass ants
Ġpass aient
Ġpass age
Ġvoy ag
Ġenf in
Ġent ass
Ġent iÃ¨re
Ġco quins
Ġcon c
Ġcri Ã©
Ġcri ait
Ġcri min
ass aut
ĠA d
ĠA h
ĠA mÃ©rique
ĠA nn
ĠA imons
ĠB our
ĠB eau
ĠR omes
ĠR Ã©publique
ĠR abbe
Ġseu le
Ġpens eurs
Ġpens Ã©es
Ġsol itude
Ġsol enn
Ġsort ons
Ġmort es
Ġchar ge
Ġchar gÃ©s
Fr iss
ob stin
ĠM aupas
oul d
Ġeff l
Ġeff roi
Ġser v
Ġser ons
Ġvers Ã©
Ġfais ant
Ġfais ons
Ġres semble
Ġres sort
ĠrÃ© el
ĠrÃ© volut
ĠrÃ© chauff
ĠrÃªv ent
ĠrÃªv eur
Ġfer a
ord ure
ĠÃ©p ouse
ĠÃ©p ouvante
ĠV Ã©nus
Ġal lez
Ġnat ale
ist res
Ġregard s
Ġregard ant
Ġregard ent
Ġregard ons
En f
En tend
de ven
Ã§ ons
Ã©c ume
Ã©c riv
Ã©g nez
Ġcour rou
Ġpren nent
Ġtri ple
Ġfor ce
Ġray onnant
Ġex tr
Ġex hale
ib al
Ġdi x
Ġdi ra
Ġdi ct
Ġpuis qu
Ġpuis se
orm Ã©s
orm itÃ©
Ġgu et
Ġgu eule
att endre
cou pl
ĠP aix
Ġsouv iens
Ġmais ons
Ġap Ã´tre
Ġcher chez
Ġcher chais
Ġcher chÃ©
ĠÃ©cl aire
ĠÃ©cl ose
ĠÃ©cl air
ĠÃ©cl abouss
Ġtrav er
Ġtrav aux
tr uit
uv re
Ġfeu ille
Ġab at
Ġab oyer
Ġblan ches
par t
par aiss
Ġ- -
Ġsour i
Ġsour iant
Ġsent i
Ġsent ant
Ġsent ier
Ġsent ez
Ġmer ci
Ġmer veill
Ġhum anitÃ©
Ġob sc
Ġesprit s
dr ales
Ġlu eurs
Ġlu gu
Ġsain tes
Ġper c
Ġper le
Ġper dre
Ġvis ionn
ĠÃ©c art
Ġvi ol
Ġvol up
Ġvol can
Ġat ome
inc ts
Ġquelque fois
honn Ãªte
Ġouv re
Ġouv ert
Ġcar esse
Ġcar ref
Ġcons ole
Ġcons truit
Ġcol Ã¨re
Ġcol onne
Ġcol osse
Ġcol osses
Ġpen chent
Ġvain cre
all ume
Ġren tre
Ġren dr
Ġren ouvelle
Ġtrou ble
Ġtrou vez
Se cou
ame lle
Ġor mes
Ġor age
Ġor ageux
ĠdÃ©s ire
Ã©ch elle
Ġven u
Ġven ge
Ġven ez
Ġven geurs
Ġac clam
Ġac cro
ouss ant
Ġrev iens
Ġrev enir
Ġrev Ãªtu
aille z
eff roi
her mine
ĠE st
ĠN apolÃ©on
Ġpouv ais
Ġman che
Ġmons tre
Ġfu ir
Ġbour se
Ġbour rus
Ġjet er
Ġjet Ã©s
Ġjet tent
aur ais
Ġrec onn
Ġrec oins
Ġrec Ã¨le
Ġrec uler
Ġrep os
Ġrep ouss
Ġrep entirs
Ġfleur it
Ã©tr anges
Ġaim ant
Ġaim ions
Ġaim ante
Ġesp ace
Ġcer cle
Ġcont ient
ĠcÃ´ te
Ġfou et
Ġfou dre
Ġfou dr
Ġfin it
Ġaur ait
Ġaur ores
aute l
Ġpart ir
Ġinf irm
Ġinf ortun
aill ons
Ġcharm er
Ġcharm ants
Ġcharm illes
Ġdiff ormes
Ġchev aux
Ġchev aliers
Mar cher
heure ux
ud es
ud as
ĠJe anne
Ġsin istres
Ġpo Ã«
Ġpo Ã©sie
Ġport er
Ġmur s
Ġquoi que
Ġplain t
Ġref ait
Ġref let
Ġref usÃ©
ĠprÃ©s ages
Ġsonge ais
ĠcrÃ© ations
Ġcroy ait
Ġimm ens
Ġimm ob
Ġatt endre
gr at
gr Ã¨s
iz ons
anÃ§ ant
Ġcom pl
Ġcom Ã¨tes
Ġcom mence
Ġfi Ã¨v
Ġad ossÃ©
Ġdem ain
Ġgard er
Ġend ormez
Ġhor izon
Ġhor izons
Ġpros crit
Ġpros tit
Ġinc ert
Ġfroi ds
plend ir
Ġbleu e
Ġtriomph e
Ġtriomph ant
gu illiers
ro plong
Ġem bÃ»
ĠLa cen
Ġemp l
Ġemp ire
Ġemp orte
Ġemp rein
ĠlÃ¢ ch
Ġdorm ais
Ġspe ct
Ġcy n
Ġcap ti
Ġvit re
Ġvrai ment
Ġfat al
Ġfum ier
Ġbat tre
Ġbat aille
Ġbat ailles
Ġsacr Ã©
ĠdÃ©f endre
ĠdÃ©v or
ĠdÃ©v ots
ĠÃ©toi les
ĠÃ©toi lÃ©e
Ġaig le
Ar naud
Re deven
Ġer rÃ©
Ġer rante
Ġdoig t
Ġsplend eurs
Ġpat ries
Ġvend u
Ġmet tra
ĠmÃª lÃ©e
Ġnu age
Ġnu ages
Ġbal ayant
entre rai
Ġju in
Ġriv es
Ġriv ages
Ġramp ant
Ġramp ants
Ġramp ez
Ġpleur Ã©
ĠfrÃ©m ir
Ġess ay
Ġarri vons
Ġclo ches
Ġclo chers
Ġentend ons
Ġimp ur
Ġimp ie
Ġpensif s
Ġall Ã©
Ġall aient
Ġapp el
Ġapp elle
Pl eure
Pren d
Voi ci
hÃ© drales
Ġlieu e
Ġcan on
Ġph are
Ġpal piter
Ġpare il
Ġvoul oir
Ġfar ouches
Ġfus ils
Ġfid Ã¨les
isse ment
Ġrou g
Ġrel Ã¢che
Ġprom it
Ġprop re
Ġprop hÃ¨te
Ġprop riÃ©t
Ġparl ent
Ġcrois se
Ġbru mes
Ġoubli ait
Ġclair on
Ġverme ils
Cher che
Ġouver te
Ġouver ture
Ġfuy ait
Ġdescend s
ĠgÃ©nÃ©r ations
Aim er
Dis ant
Laisse z
ĠH enri
Ġsoup ire
Ġsoup irs
Ã©tein t
Ġvin gt
ĠmÃ© chant
Ġmom ents
Ġmat in
Ġmat ins
Ġmat iÃ¨re
Ġnul le
arg ent
Ġband it
Ġband its
Ġbra v
Ġbra ves
Ġbatt ait
Ġgen re
Ġchamp s
Ġhib ou
Ġplan e
clam er
Ġdispar u
Ġdispar ues
Ġdispar aisse
Ġsouffl ant
Ġvieill ards
Ġeffra y
Ġtristes se
Ġblanch eurs
ĠÃ©cum er
ĠÃ©cum ante
ĠGr Ã¨ce
Ġcompren d
Ġcompren ons
Ġfix e
Lors qu
Sa chant
aff ront
Ġz Ã©phyr
Ġant re
Ġant iques
Ġloint ain
Ġloint aine
Ġsout errain
Ġsaig ne
Ġsauv eur
Ġsauv age
Ġcre use
Ġcor ps
Ġcat hÃ©drales
Ġcra che
Ġcra cher
Ġcav ernes
Ġpou dre
Ġpou vez
Ġpil iers
Ġpil astres
ĠtÃ¢ chant
Ġtamb our
Ġveu ve
Ġveu illes
Ġment on
ĠmÃ¢ ts
Ġmaud it
Ġmaud its
Ġfan f
Ġfan al
Ġfai ble
Ġfant Ã´me
Ġfant assins
Ġfam eux
Ġnouve au
arr Ãªt
Ġri ve
Ġro be
ĠrÃ©p ond
Ġrapp ort
Ġgre c
Ġgre cs
Ġhonn eur
Ġhonn Ãªte
ĠÃ©ch ine
Ã©tern el
Ã©tern itÃ©
Ġsav oir
Ġcro Ã®tre
Ġcro Ã®t
Ġcrain dre
Ġtromp Ã©e
ĠdÃ©l ire
ĠdÃ©p it
Ġair s
Ġard ents
ĠrÃ©al itÃ©s
Ġsangl ants
Ġpuiss ante
Ġabje cte
Ġabje cts
Ġsembl ait
Ġinsulte z
Ġinconn ues
Gard er
Tant Ã´t
ach Ã¨ve
gn er
hir ondelle
hale ine
ĠF ould
Ġann Ã©es
Ġlang ues
Ġdress er
ĠsÃ© d
ĠsÃ© jour
Ġsal tim
Ġcau se
Ġcamp s
Ġpoin gs
ĠpÃ©n Ã©tre
Ġpouss Ã©
Ġterri ble
Ġterri bles
Ġvo gue
Ġmou cher
Ġmorte l
ĠmÃªle z
Ġfau ve
Ġquit t
Ġbomb es
Ġros Ã©e
Ġros eau
Ġrac ine
Ġroul ant
Ġchau me
Ġhau tes
Ġhard is
Ġhard iment
ĠÃ©g outs
Ġrem ords
Ġprin ce
Ġinqui Ã¨te
Ġfriss onne
ĠÃ©tr ange
Ġail Ã©s
avant age
avent ure
acc ord
Ġsub til
ĠtraÃ® nant
Ġtrahis on
Ġtrahis ons
Chant eront
Ġenflam mÃ©
Ġenflam mÃ©es
Ġferme z
ĠÃ©clat ant
Ġobstin Ã©e
ĠEsp Ã©rance
Ġattend rie
ĠprÃ©f Ã¨re
ĠmisÃ©ra ble
ĠmisÃ©ra bles
Av ril
Br ille
Mur mure
Montre z
Nom mÃ©
Peu ple
PÃ¢ le
Pare il
Trem bl
cad es
lat ans
nu que
ÃĬ tre
Ġir r
Ġerre r
ĠlÃ¨v re
Ġdra g
rel les
Ġst yle
Ġsil ence
Ġsomme il
Ġscr up
Ġcours iers
Ġcueill i
Ġpant hÃ©on
Ġpos ant
Ġpres que
encl os
Ġtord us
Ġvom issant
ĠmÃ©ch ants
Ġmagn ifique
Ġmoqu eur
ĠfaÃ® te
Ġag itÃ©
Ġbass esse
Ġboul ets
Ġlamb eaux
Ġjas mins
Ġrap ide
Ġrad ieux
Ġchr Ã©t
Ġheur tant
Ġhist orien
Ġplais ir
ĠÃ©tein t
ĠflÃ©tr is
Ġoff rait
Ġsecou e
Ġtransf ormÃ©s
immens itÃ©
ĠdÃ©cl are
emport er
appro chant
ĠSat an
ĠSpar te
igu Ã«
Ġmarch ait
Ġdiss out
Ġsup pl
Ġeffront Ã©ment
ĠrÃ©veill Ã©e
ĠÃ©per d
ĠVeuill ot
Ã©cout ais
Ġexil Ã©s
ignor ance
Ġbast illes
Ġlumin eux
Ġcompagn on
Ġrenc ontre
effeuill ais
Ġcontinue z
ĠdiffÃ© ren
Ġsculp tÃ©
ĠcrÃ©at ure
Ġdemand er
Ġprosp Ã¨res
Ġembr asse
Ġembau mÃ©
Ġcapit aines
ĠconquÃ©r ant
Ġphil osop
Ġrelig ion
Ġaccompl i
Ġmitr aille
Ġdistingu er
Ġcadav res
Ġnoct urne
Aus si
Bra ves
Couche z
DÃ©l ivrez
It alie
Lar mes
Maint enant
Pen che
Rest ons
Sup erbe
ĠÅĵ uvre
ĠIs is
Ġlour ds
Ġlinc eul
Ġsill ons
ĠsÃ©n at
ĠsÃ» r
Ġsquel ette
ĠcÃ©l Ã¨bre
Ġpop ul
Ġprem ier
Ġpud eur
Ġtor rents
Ġmous tache
Ġmouv ants
ĠmÃ©t al
ĠmÃ©c ontents
ĠfÃ©c onde
Ġquar ante
Ġquest ion
Ġnim be
Ġdegr Ã©s
Ġbul le
Ġbouss ole
Ġjard in
assi que
Ġruis seau
Ġroy al
Ġrum eur
Ġgra ve
ĠgaÃ® tÃ©
Ġhorm is
Ġpluv ieux
Ġplaf ond
alcy on
Ġfloc on
Ã©tinc elle
Ġinfin is
Ġineff able
Ġingr ats
ĠdÃ©cro Ã®t
ĠDup in
ĠCart ouche
Autri che
adress ais
Ġambit ion
Ġentass Ã©s
Ġcrimin el
ĠAnn ibal
Ġsolenn el
ĠrÃ©chauff er
Ġcourrou ce
Ġmerveill eux
Ġvolup tÃ©s
Ġinfirm itÃ©
ĠpoÃ« te
Ġprostit u
ĠLacen aire
Redeven ez
Ġsaltim ban
- -
. "
1 8
5 5
A f
A m
A it
A vez
A yant
A mis
A mÃ©rique
B ons
B at
B les
B att
B ourd
B ave
B ate
B erc
B ontÃ©
B onaparte
B ientÃ´t
C o
C y
C om
C in
C ons
C ond
C ot
C iel
C itÃ©s
C ro
C ombe
C ave
C aÃ¯
C Ã©sar
C achez
C Ã¨de
D i
D ou
D Ã©
D us
D Ã©s
D oit
D Ã©es
D Ã©p
D Ã©g
D roit
D Ã©ch
D ivers
D onner
D outant
D ouleurs
D resses
D avid
E g
E r
E s
E ux
E par
E blou
E tein
E mp
E sp
E lys
E mpe
E change
F ai
F er
F at
F uis
F ol
F ils
F ier
F ille
F ul
F Ãªte
F oule
F ats
F oul
F Ã»t
F leur
F erme
G l
G et
G ri
G ens
G Ã©m
G org
G onfl
G Ã©ants
G aie
G alv
H ar
H om
H Ã¢
H onn
H um
H ors
H istoire
I X
I v
I ag
I mpl
I nt
I gn
J oy
J ette
J oie
J oins
J adis
J uif
J uvÃ©nal
J udas
K lÃ©
L y
L eu
L iv
L Ã¢
L im
L ang
L aiss
L iez
L uire
M ou
M an
M er
M ent
M in
M ons
M ain
M ir
M ers
M ieux
M onde
M Ã©c
M aud
M ondes
M aires
M illions
M aupas
M andrin
M amelle
N oir
N ag
N Ã©r
N euf
N arc
O l
O r
O ie
O ffrir
P o
P an
P it
P at
P end
P Ã¨re
P ens
P ay
P endre
P ass
P oul
P yr
P ouss
P asser
P erc
P Ã¨sent
R es
R en
R et
R Ã¨
R Ãª
R em
R ois
R iv
R ire
R ac
R oule
R Ã©p
R ass
R app
R iant
R Ã©veille
R Ã©gnez
R emporter
S il
S us
S ain
S uit
S onde
S ouff
S ac
S tu
S ab
S ole
S par
S ert
S ots
S onge
S eront
S ubli
S era
S onnant
S avent
S phÃ¨re
S entent
T e
T ri
T Ã¢
T ort
T oit
T ombe
T enant
T int
T ein
T Ã¢che
T rav
T roplong
U g
U lys
V e
V en
V is
V it
V ieux
V oit
V ag
V ille
V ient
V eut
V ile
V eul
V oyons
V enait
V ienne
V ierges
X ain
a k
a an
a bl
a vec
a une
a cher
a his
a rent
a breuv
b Ã©
b our
b ans
b el
b ons
b us
b Ãª
b eau
b ours
b ier
b itÃ©
b ins
b ouvre
b Ã¢tre
b Åĵu
c o
c er
c et
c om
c ent
c or
c un
c ans
c as
c ur
c ri
c res
c ie
c end
c Ã¨re
c ours
c ap
c ul
c iel
c iss
c its
c use
c courez
c ommence
c outum
d er
d ans
d in
d eur
d est
d el
d ain
d Ã©s
d ra
d ieu
d ire
d ure
d ins
d ique
d if
d aille
d rir
d igne
e y
e or
e ill
e ils
e bÃ©
f t
f ait
f ri
f ra
f ler
f att
f asse
g Ã©
g ous
g is
g out
g ouff
g ist
g Ã¨bres
g mÃ©e
g irais
g nÃ©
g nent
g otes
g ands
g onner
g let
g ances
h s
h es
h on
h ar
h om
h it
h Ã¨
h al
h Ã©s
h ol
h Ã©t
h uit
h ire
h ier
h ue
h Ã©n
h aut
h ist
h ies
h let
h Ã¨me
h aum
h ambr
h Ã´te
h ak
i ol
i Ã©t
i aque
i ation
i ffre
i rique
i als
j u
j an
j ette
j ure
j uste
j outant
k l
l a
l ait
l ons
l ie
l ier
l ants
l ure
l ad
l ets
l Ã©g
l Ã¨te
l ations
m et
m ar
m ant
m un
m as
m ons
m ir
m ille
m Ã´
m eut
m yre
m od
m Ãªmes
m auds
m irer
m bler
m idon
n on
n ais
n omb
n Ã©s
n uis
n ants
n aient
n iez
n eront
n iques
o x
o Ã©
o ce
o be
o Ã»
o ges
o gne
o ffre
o rent
o ffrir
o ebÃ©
o gis
p ant
p te
p ont
p os
p ir
p ire
p ier
p ue
p oc
p ose
p ents
p iÃ¨res
p itude
p otes
p ice
p oids
p endue
p ieds
p iation
r on
r is
r est
r ons
r at
r oy
r uit
r ui
r aient
r Ã©n
r ange
r op
r aux
r oc
r omp
r illes
r ins
r une
r ass
r oux
r ailles
r gout
s on
s er
s au
s se
s Ã©e
s ol
s oy
s ang
s age
s ante
s ses
s pe
s Ã©ch
s anne
s eront
s ulte
s uaire
s amment
t er
t or
t ans
t as
t at
t aient
t ac
t ante
t ise
t able
t era
t oyer
t ouches
u a
u y
u et
u ant
u il
u os
u ge
u che
u Ã©e
u Ã¨re
u Ã©t
u illes
u ement
u fin
u cc
u bins
v Ã©
v er
v ent
v in
v ais
v ain
v al
v ois
v Ã©e
v ers
v oir
v ieux
v ag
v ions
v ient
v ache
v oix
v Ã¨le
v ente
v oqu
v Ãªque
v iÃ©t
w ag
w ton
w ell
x ill
x Ã©c
x imes
y z
y eur
y Ã¨re
y ez
y mp
y ph
y rique
y gmÃ©e
y poc
z er
z are
z aris
¦ mon
® les
Ã ¦mon
Ġ ,
Ġ 2
Ġ is
Ġ ais
Ġ ois
Ġ iv
Ġ ol
Ġ Les
Ġ Au
Ġ Puis
Ġ ut
Ġ iss
Ġ ord
Ġ Oui
Ġ Quel
Ġ ondes
Ġ In
Ġ ouragan
Ġ usÃ©
Ġ Quelqu
Ġ outrage
Ġ 18
Ġ KlÃ©
Ġ Ulys
Ġ Xain
Ġ wag
es Ã©e
es aix
es qui
es tez
Ġl an
Ġl un
Ġl us
Ġl end
Ġl oy
Ġl ire
Ġl ux
Ġl ong
Ġl anges
Ġl ouve
Ġl imp
Ġl ustre
Ġl ierre
Ġl ogis
Ġl yrique
Ġd om
Ġd ent
Ġd ur
Ġd ais
Ġd ons
Ġd am
Ġd ois
Ġd im
Ġd Ã¨s
Ġd ig
Ġd oc
Ġd ors
Ġd resse
Ġd ures
Ġd ry
Ġd outer
Ġd irai
Ġd avantage
ou d
ou n
ou es
ou er
ou is
ou te
ou ille
ou ac
ou jours
ou dre
ou bli
ou bert
ou ements
on qu
on ges
on cs
on fler
an it
an ait
an che
an cher
an ler
an ques
an cre
an cro
an urge
an aan
an cent
an kl
re nez
re cte
re gist
Ġs el
Ġs us
Ġs ire
Ġs oin
Ġs onde
Ġs Ã©r
Ġs op
Ġs orte
Ġs aut
Ġs tr
Ġs oins
Ġs Ã©ch
Ġs Ã©ant
Ġs ph
Ġs Ã©rieux
Ġs oyons
Ġs uif
Ġs oyez
Ġs itÃ´t
Ġs onder
Ġs ortez
Ġs Ã©vÃ¨re
Ġs oeurs
Ġs yl
Ġs orn
Ġs ondÃ©es
Ġs pir
Ã© it
Ã© les
Ã© bre
Ã© op
Ã© ole
Ã© ats
Ã© mi
Ã© ci
Ã© dr
Ã© irais
Ã© veill
Ã© qui
Ã© plor
Ã© rer
Ã© teau
Ã© volut
Ã© bauche
Ã© hÃ©m
Ã© dif
Ã© jan
Ġc le
Ġc os
Ġc and
Ġc ond
Ġc iv
Ġc im
Ġc ag
Ġc id
Ġc ens
Ġc age
Ġc ents
Ġc ouche
Ġc rap
Ġc ert
Ġc elles
Ġc asse
Ġc ress
Ġc ulte
Ġc uiv
Ġc antique
Ġc urieux
Ġc ach
Ġc ulp
Ġc ierges
Ġc achez
Ġc outum
Ġc Ã¢ble
Ġc iguÃ«
Ġc acher
Ġc Ã©les
Ġp ent
Ġp un
Ġp in
Ġp au
Ġp us
Ġp Ãª
Ġp ol
Ġp eau
Ġp Ã©t
Ġp ieux
Ġp ill
Ġp av
Ġp ac
Ġp age
Ġp ure
Ġp aÃ®
Ġp oup
Ġp ins
Ġp ist
Ġp amp
Ġp ique
Ġp Ã©ri
Ġp aille
Ġp Ã©tr
Ġp iÃ©
Ġp aÃ®tre
Ġp anne
Ġp ousse
Ġp ersonne
Ġp iÃ¨
Ġp este
Ġp endue
Ġp Ã´les
Ġp Ã¨sent
Ġp sau
Ġp esÃ©e
en Ã©
en ne
en ap
en ivre
en nes
en ise
en org
en ouill
en lÃ¨ve
en gouff
ai a
eu s
eu ve
eu les
eu ille
eu st
eu ples
eu cal
eu nuque
Ġt ur
Ġt ait
Ġt ort
Ġt ot
Ġt im
Ġt elle
Ġt um
Ġt ue
Ġt ors
Ġt air
Ġt iss
Ġt iens
Ġt Ã©m
Ġt ern
Ġt enir
Ġt aud
Ġt aill
Ġt Ã´t
Ġt hÃ©
Ġt ige
Ġt onner
Ġt enait
Ġt andis
Ġt iges
Ġt igre
Ġt ailler
Ġt haum
Ġt yph
qu Ã©
qu ai
qu er
qu et
qu ant
qu is
qu eur
qu Ã©s
qu ois
qu ier
qu ement
qu ilibre
Ġv el
Ġv Ãª
Ġv Ã©t
Ġv ap
Ġv ac
Ġv ue
Ġv ig
Ġv Ãªte
Ġv ante
Ġv Ã©l
Ġv ins
Ġv Ã©c
Ġv Ã©g
Ġv enir
Ġv ann
Ġv anne
Ġv otes
Ġv anitÃ©
Ġv ienne
Ġv este
Ġv rais
Ġm ans
Ġm and
Ġm Ã©s
Ġm ien
Ġm ol
Ġm oit
Ġm ette
Ġm ang
Ġm ine
Ġm eure
Ġm iel
Ġm Ã©l
Ġm oule
Ġm Ã»
Ġm ass
Ġm Ã¨res
Ġm ist
Ġm ise
Ġm ines
Ġm oeurs
Ġm idi
Ġm enÃ©
Ġm eules
er as
er ce
er ve
er tes
er aient
er ro
er bes
er dit
er vir
er aude
er oles
er tumes
er mant
er vions
oi eraient
Ġf ous
Ġf is
Ġf est
Ġf os
Ġf Ãª
Ġf end
Ġf Ã¢
Ġf oy
Ġf Ã©t
Ġf aux
Ġf ure
Ġf iel
Ġf Ã©l
Ġf oul
Ġf if
Ġf iÃ¨re
Ġf Ãªt
Ġf oie
Ġf oins
Ġf ume
Ġf auv
Ġf aqu
Ġf osses
Ġf ade
Ġf aune
Ġqu in
Ġqu ad
Ġa ch
Ġa ff
Ġa si
Ġa fin
Ġa gr
Ġa gu
Ġa ffre
Ġa ction
Ġa fri
Ġa joutant
Ġa yez
Ġn our
Ġn as
Ġn Ã©s
Ġn oy
Ġn um
Ġn age
Ġn Åĵ
Ġn ommes
Ġn Ã©g
Ġn aiss
Ġn orm
Ġn aine
Ġn up
Ġn ains
Ġn aÃ¯
Ġn Ã´tre
Ġn euf
Ġn euves
Ġn Åĵu
Ġn Ã´tres
Ġn eust
Ġn oieraient
et on
et it
et ier
et onne
et iÃ¨re
et isse
Ġde lÃł
Ġde dans
ous ie
ous Ã©e
le ct
le lui
le magne
le ver
ar es
ar ait
ar se
ar ri
ar che
ar ag
ar um
ar tu
ar ab
ar ro
ar ic
ar riv
ar nÃ©e
ar oche
ar mon
ar change
ar lemagne
ant ant
ant hÃ©on
ant ua
Ġb ur
Ġb Ã¨
Ġb iv
Ġb Ã¢
Ġb ours
Ġb ouff
Ġb ig
Ġb ad
Ġb oule
Ġb aud
Ġb Ãªtes
Ġb ouill
Ġb iÃ¨res
Ġb ombe
Ġb ave
Ġb aqu
Ġb ible
Ġb arr
Ġb ret
Ġb avant
Ġb avent
Ġb Åĵu
Ġb uvette
Ġb anqu
Ġb Ã©ante
Ġb arque
Ġb esti
Ġb ell
Ġb onnes
Ġb idon
Ġb ientÃ´t
Ġb anques
Ġb Ã©ats
Ġla me
Ġla ve
Ġla vez
Ġla ud
Ġla cs
Ġla pide
Ġla mpe
Ġla cet
il ier
il ist
om et
om or
om Ã©t
om ac
om mÃ©e
om ic
om mens
om nier
om niez
om well
our t
our Ã©
our ra
our aient
our ront
our nons
ent at
ent ra
ent ants
ent ion
ent Ãªt
ent railles
is ons
is mes
is tes
is aient
is ole
is phÃ¨re
is ane
is fasse
or i
or in
or ch
or us
or ce
or dre
or ient
or anges
or igine
or recte
un te
un ie
un elle
te ille
te ment
in os
in at
in im
in elle
in tes
in age
in ale
in iÃ¨res
in noc
in stinct
in ements
in quez
in digne
in nomb
in voqu
me z
Ġle vant
Ġle quel
ĠÃ ®les
Ġj Ã©s
Ġj oy
Ġj ui
Ġj arg
Ġj oies
Ġj oncs
eur aient
it ant
it as
it ais
it oy
it able
it ime
it hal
as er
as ement
as tÃ©s
as iÃ©s
as erai
au le
au ge
au ce
au ront
au guste
au mur
au jourd
au cas
est es
est res
est ine
Ġr am
Ġr ond
Ġr ir
Ġr ouv
Ġr iez
Ġr ong
Ġr aill
Ġr ud
Ġr use
Ġr ude
Ġr Ã´le
Ġr ousse
Ġr aff
Ġr estÃ©
Ġr Ã´les
Ġr ocs
Ġr anime
Ġr Ã¢ble
Ġr allume
Ġr hÃ©t
ur ier
ur ti
ur able
ur ation
ais ie
ais onne
Ã¨ ches
Ã¨ gnes
Ã¨ neront
ont ant
ont res
ont ra
ont oire
ont rent
ont aires
ont rou
ont eras
ch i
ch eurs
ch ir
ch Ã©e
ch ions
ch Ã©es
ch iens
ch aine
ch ards
ch ands
ch ip
ch oires
ch inale
Ġun s
Ġun itÃ©
Ġun anime
Ġdes se
Ġdes potes
Ġdes sÃ©ch
Ġau ge
Ġau rez
Ġau tres
Ġau quel
Ġau dit
Ġau tri
Ġau cun
Ġau mÃ´
Ġg ond
Ġg ol
Ġg ren
Ġg rap
Ġg aill
Ġg agn
Ġg erbe
Ġg oÃ»t
Ġg Ã©ante
Ġg aie
Ġg amelle
Ġg oÃ»
Ġg onfler
Ġg estes
os ant
os ait
os tant
os era
os th
os ture
os co
os tat
el s
el eur
el ons
el ui
el ang
el Ã©es
el ante
el ines
Et ait
Ġen ge
Ġen ri
Ġen chant
Ġen ven
Ġen vir
Ġen velop
Ġen lÃ¨ve
Ġen chaÃ®
Ġen nuis
Ġen sang
Ġen vieux
Ġen regist
ait ants
Ġdans es
Ġdans ant
Ġdans ent
Qu int
Qu esti
tre fois
us Ã©e
us ier
us ion
us ifs
us ter
Ãª les
Ãª ques
Ġch at
Ġch oir
Ġch Ã©t
Ġch ard
Ġch im
Ġch Ã©r
Ġch ac
Ġch aire
Ġch oc
Ġch Åĵur
Ġch oux
Ġch Ã©ri
Ġch oix
Ġch ienne
Ġch ambre
Ġch enille
Ġch Ãªnes
Ġch iffre
Ġch enap
Ġh ais
Ġh ait
Ġh ir
Ġh ier
Ġh Ã´
Ġh oule
Ġh ab
Ġh Ã©m
Ġh ord
Ġh ale
Ġh all
Ġh ivers
Ġh ache
Ġh oqu
Ġh aines
Ġh enn
Ġh iver
Ġh aillon
Ġh aillons
Ġh uÃ©e
Ġh ypoc
Ġh erbes
Ġh armon
Ġh omic
Ġh ourra
Ġque relles
se ill
at eur
at tre
at ern
at ues
at ouill
at ite
at tez
at agan
at urÃ©s
at urge
ge as
Ġpl ans
Ġpl um
Ġpl ier
Ġpl Ã©n
Ġpl age
Ġpl aire
Ġpl iss
Ġpl eut
Ġpl aig
Ġpl oie
Ġpl ages
Ġpl oyer
Ġpl anteurs
Ġpl oyÃ©e
out ait
ce aux
ce pt
omb s
omb es
omb er
omb id
omb rit
omb rÃ©s
ĠÃ© cr
ĠÃ© br
ĠÃ© crit
ĠÃ© den
ĠÃ© mer
ĠÃ© bauche
ĠÃ© rable
ĠÃ© grat
ĠÃ© meut
ĠÃ© quilibre
ĠÃ© lect
ri on
ri er
ri ons
ri and
ri ens
ri ces
ri eures
and re
and ant
and ie
and onn
Ġpas sez
ve au
ve mbre
al an
al am
al ine
al be
al ler
al ti
al anges
al lez
al cades
al bÃ¢tre
al myre
am i
am ne
am eurs
am oin
am ents
am ache
am use
am ides
am asser
am ertumes
Ã©s ign
Ġdu el
Ġdu pes
Ġdu Ã¨gnes
Ġre cl
Ġre pl
Ġre cou
Ġre tr
Ġre pro
Ġre des
Ġre paraÃ®tre
Ġre paraiss
Ġre bours
Ġre din
Ġre jette
Ġre lever
Ġsur hum
Ġsur tout
Ġsur pren
Ġsur girais
Ġest ime
Ġest rop
Ġest omac
em ain
em men
em ro
em bus
em non
ois ie
ois onn
ois ses
ois eleur
ra che
ra Ã®
ra ct
ra Ã«
ra ction
ra gance
ra dÃ©s
ond re
ond ait
ond Ã©e
ond able
ond elles
ff onne
Ġpr ol
Ġpr ouv
Ġpr Ãªte
Ġpr Ã©p
Ġpr ose
Ġpr oue
Ġpr Ãªts
Ġpr otÃ©
Ġpr uss
Ġpr unelle
ir me
ir ants
ir rit
ie d
ie fs
uis er
uis ant
uis Ã©s
Ġpar c
Ġpar les
Ġpar ts
Ġpar ut
Ġpar aÃ®tre
Ġpar od
Ġpar jure
Ġpour rir
Ġpour pre
Ġpour rais
Ġpour vu
ers il
end u
end ie
end ez
end ues
Ġje Ã»
iv es
iv ie
iv elle
iv oire
iv ernes
iv rance
Ġfl ag
Ġfl Ã©ch
Ġfl euve
Ġfl Ã¨ches
ol i
ol z
ol ent
ol in
ol ime
ol Ã¢tre
ol lie
ol ogne
ol ontaires
ol ombs
Ġo h
Ġo bli
Ġo rem
Ġo ffre
Ġo euf
Ġo deur
Ġo eill
oir ai
Le vez
Ã¢ nes
Ã¢ cre
Ã¢ mer
Ġse cr
Ġse rez
Ġse pte
pr Ãªme
pr ob
pr ud
pr unte
ort ait
ort Ã©s
ort agne
Ġtout ous
Ġgr os
Ġgr ot
Ġgr oup
Ġgr Ã¨ve
Ġgr inc
Ġgr Ãªle
Ġgr osse
Ġgr aines
Ġgr onder
Ġgr ossi
Ġgr Ã¢ce
Ġgr anit
Ġgr attez
oy ant
oy ants
oy ola
ouv a
ouv el
ouv rait
ouv rir
ouv rit
ouv rage
ouv erte
ouv erts
ouv antant
Ã©t at
Ã©t ouff
Ã©t onne
Ã©t iez
Ã©t rant
Ã©t its
Ã©t ation
Ã©t riv
Ã©t endue
Ã©t ends
Ġson ne
Ġson ore
Ġson nant
Ġson geurs
Ġson ores
Ġson ner
Ġsa vez
Ġsa bles
Ġcr u
Ġcr us
Ġcr aient
Ġcr oc
Ġcr aig
Ġcr asse
Ġcr ains
Ġcr aint
Ġcr oqu
Ġcr Ã¨che
Ġcr Ã»tes
Ġcr Ã©puscule
Ġcr iniÃ¨res
Ġcr oirai
Ġcr Ã¢nes
La ve
La zare
Ġtr Ã´
Ġtr ousse
Ġtr onc
Ġtr aits
Ġtr oupe
Ġtr Ã´ne
Ġtr Ã©b
Ġtr oupeau
Ġtr Ã©teau
Ġtr aitants
Ġin onde
Ġin cl
Ġin ap
Ġin tÃ©
Ġin ces
Ġin ondÃ©es
Ġin juste
Ġin vin
Ġin ondÃ©e
ard eur
ard ise
ard aig
ard ement
oit ant
onn a
onn u
onn Ã©s
onn aÃ®t
Ġbr um
Ġbr ouss
Ġbr Ã¨che
Ġbr oche
Ġbr isÃ©
Ġbr uni
Ġbr isaient
Ġfr ais
Ġfr Ãªle
Ġfr aude
Ġfr Ãªne
Ġfr Ãªnes
Ġfr Ãªles
Ġfr atern
ot h
ot on
ot tes
ot hÃ©
ot zaris
Ġmon arque
im eux
im al
im Ã©e
im pl
im age
im plor
im itas
im prud
ĠdÃ© ro
ĠdÃ© part
ĠdÃ© range
ill on
ill Ã©
ill er
ill et
ill ant
ill um
ill aient
ill ante
ill eront
ill eures
ill onnant
ill ip
ill animes
ill usion
bl Ã©s
bl aient
Ã® tes
Ġton ne
ag ine
ag ion
ag ate
ag enouill
ble aux
id ant
id as
id Ã©ales
um Ã©e
ĠD u
ĠD ans
ĠD eux
ĠD ure
ĠD Ã©m
ĠD ormez
ĠD Ã¦mon
ĠD esaix
ĠD Ã©plor
ĠD eucal
ĠD elang
ĠD ombid
ens Ã©e
ens oirs
tes te
tes se
ier a
Ġleur re
Ġpeu pl
Ġpeu vent
Qui conque
De bout
Ġtou chant
Ġtou relles
ĠÃ©t roi
ĠÃ©t endues
cl ure
cl ut
cl ament
cl ope
cl erc
cl usifs
ui te
Ġai ment
Ġai lle
Ġai lÃ©e
emp le
emp ire
emp his
ap oins
ap aise
ap Ã´tre
ap proche
ap han
ap Ã´tres
ap plaud
ap part
av ait
av aient
av iÃ¨re
av orton
av ouer
Ġou i
Ġou blie
ille z
ille quier
Ã©r ans
Ã©r aire
Ã©r ation
Ã©r ailles
Ã©r ament
Ã©r Ãªts
Ã©r ouse
ĠÃ¢ tre
ĠÃ¢ ges
ĠÃ¢ cre
ĠÃ¢ pres
Ġtomb ent
Ġtomb aient
Ġtomb ez
Ġtomb Ã©es
Ġe Ã»tes
Par mi
Par fois
st ac
st one
ul eux
ul si
ul aire
ul euses
ul cÃ¨re
ang ile
ren ne
ren dre
Ġma tel
Ġma ximes
Ġma chinale
ac le
ac Ã©s
ac ieux
ac ier
ac Ã©es
ac ques
ac clam
ac chus
ac ombes
pl in
pl ait
pl oitant
ue ils
ue ille
ue illes
Ġsi gn
Ġsi gnes
Ġvoi lÃ©e
Ġvoi lÃ©
Ġvoi lier
ĠC et
ĠC ar
ĠC oc
ĠC ord
ĠC yr
ĠC aÃ¯
ĠC oeur
ĠC anaris
ĠC ommence
ĠC aude
ĠC arra
ĠC alv
ĠC Ã©dr
ĠC orin
ĠC itoy
ĠC aucas
ĠC urti
ĠC ontra
ĠC elui
ĠC olombs
Ã©n on
Ã©n ig
Ã©n itÃ©
Ã©n ormes
Ã©n ormitÃ©
tu es
ĠS ans
ĠS oc
ĠS ib
ĠS ud
ĠS oyons
ĠS od
ĠS ambre
ĠS cÃ©
ĠS cap
ĠS hak
ĠS ucc
ĠS Ã©jan
ĠS arag
ĠS aumur
ĠS alam
ĠS olime
ĠS ardaig
si on
Au jourd
Au trefois
Ġgl isse
Ġgl ands
Ġgl obe
Ġgl acÃ©s
ig ieux
ig uration
Ġes cad
Ġes clav
Ġes cal
Ġes clave
Ġdou ble
Ġdou blÃ©
Ġtu a
ay ard
ail s
Ġta ches
Ġta bleaux
Un issons
Un bouvre
Ġmar ches
Ġmar aud
Ġmar guilliers
Ġmar quÃ©s
op Ã©es
op ale
op hes
op Ã©ration
Ġdis ant
Ġdis ions
Ġdis cours
Åĵ illet
Ġbl Ã©s
Ġbl ond
Ġbl onde
Ġbl oc
Ġbl Ãªme
Ġbl ocs
Ġbl Ã¢mer
Ġy euse
Ġy atagan
Ġar c
Ġar t
Ġar mÃ©
Ġar ro
Ġar mÃ©es
Ġar mure
Ġar mÃ©s
Ġar racher
Ġar chip
aÃ® nes
aÃ® tr
aÃ® nons
dre ts
oc q
oc es
oc ale
Ã©l Ã©ment
Ã©l oqu
Ã©l oge
Ã©l oges
Ã©l ancent
Ġvent e
Pour vu
ad Ã©
ad ais
ad elle
ad Ã¨mes
ad hÃ©s
ad mirer
ore b
ore z
Ġsouff ert
Ġsouff rant
Ġsouff rance
Ġcl ou
Ġcl os
Ġcl oses
Ġcl ouÃ©e
Ġcl airi
Ġcl assique
Ġcl ameurs
Ġver ge
Ġver rai
Ġver ger
Ġver dit
Ġver dure
Ġam ant
Ġam ple
Ġam eut
Ġam Ã¨ne
Ġam ollie
orte l
be c
ient s
Ġsu d
Ġsu eur
Ġsu cres
Ġsu ivie
Ġsu prÃªme
Ã©p i
Ã©p ine
Ã©p Ã©es
Ã©p ides
Ã©p ouvante
Ã©p aul
Ã©p ancher
Ġav aient
Ġav ions
Ġav ance
Ġav orte
Ġav are
Ġav enir
Ġav ril
Ġav anÃ§ant
Ġav ortÃ©s
omp table
ĠrÃª vez
ivre r
ab o
ab us
ab je
ab rit
ab onnÃ©
ab sent
ab yl
ab dique
ab attre
oup i
oup issez
air s
ins ulte
aut Ã©
aut rui
ut in
ut ons
ut ie
Ġtemp les
Ġtemp Ã©rament
Ġmes se
Ġmes sage
Ġbon homme
Ġbon heurs
Ġpro clam
Ġpro clame
Ġpro grÃ¨s
Ġpro bitÃ©
Ġpro chaine
Ġnoir cie
iss Ã©
iss ent
iss ables
Ġpass ait
Ġpass ons
Ġpass Ã©s
Ġpass ions
Ġpass iez
Ġflot tant
Ġflot tait
Ġflot taient
Ġfront on
Ġfront iÃ¨res
Ġjus tes
Ġjus ques
Ch ange
Ch arg
Ch ocs
Ch rist
Ch aÃ®nes
Ã» te
Ġte int
Ġvoy ages
Ġbeau tÃ©s
Ġenf le
Ġenf uis
Ġenf ers
Ġenf ance
Ġenf ante
Ġenf once
Ġenf onÃ§
bli Ã©
mi Ã¨res
mi rions
Ġent r
Ġent ra
Ġent rÃ©s
Ġent ourÃ©
Ġim ber
Ġim prob
Ġim agine
Ġco teaux
Ġco gner
Ġco hue
Ġcon fin
Ġcon tez
Ġcon clave
Ġcon clut
Ġcri ant
Ġcri ais
Ġcri aient
Ġcri ez
Ġcri bles
Ġcri blÃ©s
Ġtour nez
Ġtour nÃ©
ass ent
ass is
ass ass
ass aisonne
ass ombrit
ass ied
ĠA mi
ĠA lle
ĠA insi
ĠA mp
ĠA mis
ĠA lex
ĠA bel
ĠA ccourez
ĠA rgout
ĠA uster
ĠA drets
ĠB ob
ĠB aig
ĠB ret
ĠB asile
ĠB rune
ĠB yz
ĠB ancro
ĠB Ã©hÃ©m
ĠB aia
ĠB aroche
ĠB osco
ĠB albe
ĠB ragance
ĠB otzaris
ĠB aviÃ¨re
ĠB acchus
ĠB ayard
ĠB abyl
ĠR ob
ĠR abel
ĠR iance
ĠR Ã©gnez
ĠR ufin
ĠR Ã©volut
ĠR Ã©sign
ĠR endez
Ġseu ils
Ġseu lement
Ġpens es
Ġpens Ã©
Ġpens ants
Ġsort ant
Ġsort is
Ġsort ira
Ġdev ais
Ġdev ait
Ġdev oir
Ġdev aient
Ġdev ine
Ġdev oirs
Ġdev ienne
Ġdev inÃ©
Sur gir
ci fs
ci bles
Ġmort uaire
Ġchar itÃ©
Ġchar anÃ§
Ġchar ger
Ġchar ret
Ġchar bon
Ġchar latans
Ġchar gÃ©
Ġflam be
Car ref
Fr Ã¨re
Fr Ãªle
cr its
ct ions
ct imes
ob ar
ob sc
ob Ã©irais
ob usier
ĠM es
ĠM on
ĠM Ã¨re
ĠM yr
ĠM use
ĠM ales
ĠM agn
ĠM euse
ĠM ah
ĠM oÃ¯
ĠM ess
ĠM orn
ĠM andrin
ĠM assique
ĠM orus
ĠM inos
ĠM ontrou
ĠM emnon
ĠM ortagne
ĠM emphis
Ã©m eut
Ã©m itÃ©s
Ã©m onder
Ã©m ani
Ã©m eraude
Ġeff et
Ġeff ace
Ġeff acÃ©
Ġeff rois
Ġeff rÃ©n
Ġeff acÃ©es
Ġser ont
Ġser ions
Ġser iez
Ġser rant
Ġser vir
Ġser pent
Ġser pents
Ġvers ent
Ġvers ets
Ġme a
Ġme illeures
Ġfais ais
Ġfais ait
Ġfais ions
Ġfais ceaux
Ġres pe
Ġres sem
Ġres plendir
ĠrÃ© fl
ĠrÃ© uss
ĠrÃ© clamer
ĠrÃ© gner
ĠrÃ© cits
ĠrÃ© vÃ¨le
ĠrÃ© unie
ĠrÃ© cifs
ĠrÃªv Ã©s
ĠrÃªv erie
ern ales
Ġfer ons
Ġfer ment
Ġfer iez
Ġfer mÃ©e
Ġfer mÃ©es
Ġfer vente
Ġenc ombrÃ©s
Ġenc ensoirs
ĠÃ©p ais
ĠÃ©p Ã©e
ĠÃ©p Ã©es
ĠÃ©p oux
ĠÃ©p iques
ĠÃ©p hÃ©m
ĠÃ©p eler
ĠÃ©p ousÃ©e
ĠÃ©p arse
ĠÃ©p ithal
ĠÃ©p aule
ĠÃ©p uiser
ĠÃ©p ouvantant
ĠÃ©p opÃ©es
ĠJ amais
ĠJ ob
ĠJ up
ĠJ ourd
ĠJ udas
ĠJ oubert
ĠJ acques
ĠV a
ĠV as
ĠV os
ĠV ois
ĠV ie
ĠV oir
ĠV ierge
ĠV oyez
ĠV olt
ĠV Ã©ritÃ©
ĠV ox
ĠV enise
ĠV olontaires
ĠV illequier
Ġal cy
Ġal gÃ¨bres
Ġal lelui
Ġal tesse
Ġnat ures
ist ain
ist ins
ist ence
ist rat
Ġregard ais
Ġregard Ã©e
En chaÃ®
En cor
men cer
ti Ã©
ti le
ti ale
ti ques
Ã§ at
Ã§ oit
Ã§ aient
Ġlivre r
Ã©c ole
Ã©c rez
Ã©c art
Ã©c ueil
Ã©c rie
Ã©c arte
Ã©c rire
Ã©c oute
Ã©g on
Ã©g at
Ã©g out
Ã©g org
Ã©g ances
Ã©g arait
Ġcour ant
Ġcour se
Ġcour ir
Ġcour ants
Ġcour ions
Ġcour ts
Ġcour onne
Ġcour ront
Ġcour onnÃ©
Ġcour roux
Ġpren ant
Ġpren ait
Ġpren ne
Ġpren iez
Ġtri que
Ġtri che
Ġtri cher
Ġtri chez
Ġfor mÃ©
Ġfor ces
Ġfor ger
Ġfor cÃ©es
Ġfor faits
Ġfor fait
Ġfor Ã§at
Ġray Ã©
Ġray ait
Ġray onnaient
Ġray onna
aiss Ã©
amp agne
Ġex prÃ¨s
Ġex tra
Ġex iste
Ġex iguÃ«
Ġex tas
Ġex quis
Ġex auce
Ġex clusifs
Ġex istence
Ġex Ã©crez
ib les
ib Ã¨re
Ġdi able
Ġdi aphan
Ġdi adÃ¨mes
Ġmal heurs
Ġmal heureux
orm er
orm ais
aisse z
Ġgu ide
Ġgu erriÃ¨re
Ġgu enille
Ġgu idant
att ire
att able
att ache
att endant
att entat
att raction
Ġtoute fois
cou te
cou tez
cou dÃ©e
ĠP ont
ĠP ro
ĠP lat
ĠP rob
ĠP roc
ĠP ygmÃ©e
ĠP anurge
ĠP euples
ĠP etit
ĠP anthÃ©on
ĠP atouill
ĠP almyre
ĠP ersil
ĠP ologne
ĠP Ã©rouse
Ġsouv ient
Ġap pro
Ġap hor
Ġap pris
Ġap proche
Ġap paraÃ®tre
Ġap erÃ§
Ġap plaud
Ġap erce
Ġap ostat
Ġap othÃ©
Ġcher chant
Ġcher chions
ĠÃ©cl ore
ĠÃ©cl oses
ĠÃ©cl ate
ĠÃ©cl ip
Ġtrav aillez
if e
tr Ã©s
tr ine
tr aille
uv es
Ġfeu tre
Ġab hor
Ġab Ã®mes
Ġab sol
Ġab andonn
Ġab ondait
ign er
Ġprof il
yr s
Ġsour d
Ġsour it
Ġsour ce
Ġsour ds
Ġsour de
Ġsent ent
Ġsent ait
Ġsent ons
Ġsent ir
Ġsent iers
Ġsent inelle
aig nÃ©e
aig uilles
Ġhum ains
Ġhum bles
Ġhum ides
Ġob us
Ġob jets
Ġob sÃ©
Ġob jet
Ġob Ã©it
Ġob stac
dr Ã©
dr ai
pe ct
ĠT a
ĠT oi
ĠT ous
ĠT age
ĠT ibre
ĠT ourne
ĠT iqu
ĠT rois
ĠT ends
ĠT orton
ĠT roplong
ĠT hÃ¨
ĠT rest
ĠT oujours
ĠT artu
ĠT ibÃ¨re
ĠT yrs
Ġlu zer
Ġper te
Ġper ce
Ġper tes
Ġper ven
Ġper drait
Ġper fe
Ġper vers
Ġper Ã§oit
Ġple ine
Ġtrem pant
Ġtrem plin
Ġvis ite
Ġviv ais
Ġviv res
Ġviv eurs
Ġas pire
Ġas pect
Ġbas e
ĠÃª tres
Ã¨ve rez
Ãªt res
Ãªt etÃ©
ĠÃ©c ume
ĠÃ©c aill
ĠÃ©c ailles
ĠÃ©c outant
ĠÃ©c outer
ĠÃ©c rire
ĠÃ©c orce
ĠÃ©c outait
ĠÃ©c ueils
app ais
app ui
app ez
app ela
app elais
app elons
app ortait
ĠG ange
ĠG rant
ĠG arg
ĠG amas
ĠG eor
ĠG lad
ĠG uet
ĠG omor
ĠG amache
ĠG oton
Ġcou cher
Ġcou de
Ġcou rez
Ġcou dÃ©e
Ġvi le
Ġvi vez
Ġvi ces
Ġvi pÃ¨re
Ġvi com
Ġvi ctimes
Ġvois inage
Ġvol ant
Ġvol eurs
erri es
Ġat tein
Ġat hÃ©e
Ġat teste
Ġnom mÃ©
Ġnom mons
inc ommens
inc tement
inc onnu
Ġchant es
Ġchant Ã©
Ġchant ant
Ġchant ent
Ġchant eur
Ġchant ait
Ġchant aient
Ġchant ions
Ġchant ez
ĠhÃ©r oÃ¯
ĠhÃ©r issÃ©
able ment
honn ÃªtetÃ©
lle ment
Ġouv rait
Ġouv rit
Ġouv rage
Ġouv rier
Ġlaiss er
Ġlaiss ais
Ġlaiss aient
Ġcar te
Ġcar Ã¨ne
Ġcar esses
Ġcar cans
Ġcar touches
Ġcar illonnant
Ġcons ume
Ġcons eil
Ġcons entent
Ġcons tel
Ġcons tern
Ġcons eils
Ġcons pue
Ġcons ulaire
Ġcol onnes
Ġcomp te
Ġcomp tÃ©
Ġcomp renez
Ġcoup e
Ġcoup Ã©e
Ġpen ches
Ġpen chant
Ġpen chÃ©es
Ġvain s
Ġvain queur
all ier
all ong
all onge
all iance
Ġren d
Ġren aÃ®tre
Ġren ommÃ©e
Ġren iera
Ġren Ã©gat
Ġren trÃ©s
Ġtrou Ã©
Ġtrou er
Ġtrou Ã©s
Ġtrou blÃ©
sc obar
ĠL eur
ĠL oire
ĠL Ã©v
ĠL Ã©on
ĠL ola
ĠL ouis
ĠL oyola
ĠL ouvel
ĠL illip
Ġor ages
Ġor ph
Ġor nÃ©
Ġor nant
Ġor igine
Ġor viÃ©t
Ġor ients
esp Ã¨re
esp Ã©rance
esp Ã©rÃ©
esp ierre
ĠdÃ©s ir
ĠdÃ©s honneur
ĠdÃ©s espoir
ĠdÃ©s erte
ĠdÃ©s erts
ĠdÃ©s hon
ĠdÃ©s ertes
ĠdÃ©s espÃ©rÃ©
Ġsais i
Ġsais is
Ġsais it
Ġsais ons
Ġsais ir
Ġsem er
Ġsem Ã©s
Ġsem Ã©es
Ã©ch o
Ã©ch af
Ã©ch auff
Ã©ch issons
Ã©ch appais
Ã©ri r
Ã©ri que
Ã©ri ens
Ã©ri ales
Ġcent ime
Ġven ant
Ġven us
Ġven aient
Ġven ue
Ġven ger
Ġven imeux
Ġac Ã©rÃ©
Ġac coupl
Ġac clament
Ġac coudÃ©e
Ġjeu di
Ġche f
Ġche fs
Ġpleure z
Ġpleure ur
Ġrev ers
Ġrev oir
Ġrev ient
Ġrev Ãªt
Ġrev iennent
Ġrev enait
Ġrev enu
Ġrev endu
Ġentre ra
Ġentre pont
cle z
eff aÃ§
eff roy
eff euille
her bes
mpl ateurs
ĠE h
ĠE aque
ĠE scur
ĠE urope
ĠE xÃ©c
ĠE coutez
ĠE scobar
ĠN on
ĠN il
ĠN otre
ĠN ier
ĠN ul
ĠN ord
ĠN Ã©b
ĠN oÃ©
ĠN emro
Ġlar ve
Ġpouv ait
Ġpouv aient
Ġpouv oirs
Ġvag uement
Ġman quÃ©
Ġman ivelle
Ġmont ent
Ġmont ra
Ġmont aient
Ġfu rent
Ġbour rÃ©s
Ġbour bier
Ġjet a
Ġjet ait
Ġjet tes
Ġjet ez
Ġhasard e
Ġhasard s
Ġrec ule
Ġrec ommence
Ġrec onqu
Ġrec ouverts
Ġrec ueilles
Ġrep u
Ġrep us
Ġrep aire
Ġrep rendre
Ġfleur i
Ã©tr Ã©
Ã©tr ange
Ã©tr anger
blou i
Ġaim ants
Ġaim eront
Ġaim Ã¢mes
Ġesp Ã¨re
Ġesp oirs
Ġesp Ã¨ce
Ġesp aces
hor loge
onge ant
Ġcer veau
Ġcont ais
Ġcont ents
Ġcont enir
Ġcont agion
ĠcÃ´ tÃ©s
ĠcÃ´ toyer
Ġpre ux
Ġpre miÃ¨res
Ġporte z
Ġfou ille
Ġfou ines
Ġfou dres
Ġfou illÃ©
Ġaur a
Ġaur ont
Ġaur iez
Ġaur Ã©ole
Ġpris es
Ġpris me
Ġpris ons
Ġpris mes
Ġpart ent
Ġpart is
Ġpart ais
Ġpart hÃ©n
Ġinf lex
Ġinf ernales
Ġins crit
Ġins ondable
Ġins olent
Ġins ensÃ©e
aill ir
Ġcharm Ã©e
Ġcharm ante
Ġdiff Ã©rÃ©
Ġdiff icile
Ġdiff ormitÃ©
Ġtravers ent
Ġtravers ait
Ġchev al
Ġchev ille
Ġchev ets
Ġchev reaux
Mar ches
Mar chent
Mar guilliers
Mar chands
Ou en
Ou blie
Ou bliÃ©
puis sant
vol a
ĠJe an
Ġdiv ine
Ġdiv ines
ann ie
ann Ã©e
Ġsc elle
Ġsc elles
Ġsc int
Ġsc arab
Ġsin ge
Ġsin ueux
Ã©cl aire
Ã©cl ip
Ġcomb le
Ġpo che
Ġport ant
Ġport ent
Ġpay a
Ġpay Ã©
Ġpay en
Ġpay er
Ġpay Ã©s
Ġmur Ã©
Ġmur aille
asse oir
asse mbler
osse ments
Ġplain s
Ġplain drai
Ġref us
Ġref leur
Ġref lÃ¨te
Ġref uge
Ġref ermant
ĠprÃ©s ents
ĠprÃ©s ide
ĠprÃ©s ence
Ġsonge ant
ĠcrÃ© er
Ġcroy ants
Ġcroy aient
Ġcroy ions
Ġbras ier
omph e
Ġimm ondes
Ġimm ortel
Ġflamb oie
Ġflamb oyante
Ġflamb oyants
Ġnature llement
Ġprofond eurs
Ġplein es
Ġatt ache
Ġatt itude
Ġatt endant
Ġatt aqu
Ġatt irer
Pr ouve
Pr otes
Pr od
Pr uss
Pr Ã©ci
Pr omÃ©t
br Ã©
gr isÃ©
mp antes
Ġdonn a
Ġdonn es
Ġdonn Ã©
Ġdonn ent
Ġdonn as
Ġdonn ons
Ġdonn Ã©e
Ġcom mun
Ġcal mer
Ġcal cul
Ġcal omnier
ĠpÃ¢ lit
ĠpÃ¢ lir
enc ieux
enc ense
aim er
aim ant
aim erai
Ġfi Ã¨res
Ġfi ction
Ġad ieu
Ġad ore
Ġad mir
Ġad vient
Ġad mirions
Ġdem eures
entend rai
Ġgard ez
Ġchem ine
Ġchem ins
Ġhor reur
Ġhor loge
ĠprÃ© ju
Ġpros pÃ¨re
Ġpros cri
Ġpros crits
Ã©toi ler
Ġinc ompl
Ġinc orrecte
Ġinc endie
Ġtriomph es
Ġtriomph Ã©
Ġtriomph al
Ġtriomph ante
Ġtriomph ale
Ġtriomph Ã¢mes
Al ler
Al laient
Al lons
gu er
ph e
ph yre
vel i
vel ir
Ġem prunte
ĠLa hire
Ġemp oisonn
ĠlÃ¢ cher
ĠlÃ¢ ches
Ġdorm ant
Ġdorm ants
Ġcy prÃ¨s
Ġcy mb
Ġcy clope
Ġcap e
Ġcap s
Ġcap otes
Ġcap rices
enf er
enf once
Ġve illes
Ġve ines
Ġve xill
Ġve illant
Ġvit raux
Ġmis sion
oig nÃ©e
Ġfun este
Ġfun Ã¨bre
Ġfun Ã©railles
Ġfat als
Ġfum ants
Ġfum Ã©es
Ġni ais
Ġber ce
Ġber ger
Ġber cÃ©es
Ġber Ã§aient
Ġbat aillons
Ġbat tues
ĠÃ©blou is
ĠÃ©blou it
ĠÃ©blou ie
ĠÃ©blou issant
ĠÃ©blou issants
Ġsere ins
Ġsacr istain
ĠdÃ©f ait
ĠdÃ©f ies
ĠdÃ©f ense
ĠdÃ©v ore
ĠdÃ©v ide
ĠdÃ©v otes
ĠdÃ©v ouements
ĠdÃ©v astÃ©s
ĠÃ©toi la
ĠÃ©tern elles
Ġaig ri
Ġaig ref
ĠCh ers
ĠCh ose
ĠCh acun
ĠCh ate
ĠCh rist
ĠCh anaan
ĠCh Ã©op
ĠCh arlemagne
ĠCh ampagne
Ġconf ie
Ġconf iÃ©
Ġconf ondre
Ġconf ormer
Ar c
Ar mÃ©e
Ar ras
Ar racher
Ar rache
Ar aignÃ©e
Re proche
Re dout
Re garde
Re commence
Re pos
Re vois
af auds
ys ocale
Ã©v adais
Ġpat er
Ġpat auge
ĠtÃ©n Ã©bre
Ġvas es
Ġvas tes
Ġvend ant
Ġvend eurs
Ġvend Ã©mi
Ġmet tent
Ġmour ant
Ġmour rez
Ġmour antes
Ġmor dre
Ġmor ose
Ġmor oses
Ġmor ales
Ġnu Ã©es
Ġnav res
Ġbal les
Ġbal but
Ġbal ivernes
entre vis
entre voir
Ġju ges
Ġju rent
Ġramp e
Ġramp ent
Ġgouff res
Ġpleur es
Ġpleur ait
Ġpleur aient
Ġretour ne
Ġretour nant
Ġretour nons
Ġparler ais
Ġtrouv ent
Ġtrouv era
ĠfrÃ©m it
ĠfrÃ©m issant
ĠfrÃ©m issement
ĠsiÃ¨ cles
Ġess ieux
Ġess ayons
Ġarri Ã¨re
Ġarri vez
Ġarri vÃ©e
Ġclo che
Ġentend it
Ġentend ement
Ġimp uni
Ġimp ossi
Ġimp osture
Ġimp Ã©riales
Ġconqu Ãªte
Ġconqu Ãªtes
Ġconqu ises
Ġconqu Ã®tes
Ġconqu Ã©rir
Ġtourbill ons
Ġall ait
Ġall Ã©s
Ġall umÃ©e
Ġall ongeant
Ġprendre z
Ġapp ui
Ġapp orte
Ġapp uy
Ġapp Ã©tits
Ġmeurt ri
encens oir
Ġchemin er
Pl anait
Pl euraient
Pren dre
Vers ent
his te
ĠlÃ©g ale
ĠlÃ©g uer
ĠlÃ©g itime
anou ie
Ġconn u
Ġconn Ã©table
Ġconn aissez
Ġph ras
Ġph alanges
Ġpous sez
Ġpal me
Ġpal mÃ©s
Ġpare ille
Ġpare illes
Ġvoul ons
Ġvoul ions
Ġfus il
Ġfus eau
Ġfirm aments
Ġno vembre
Ġrou te
Ġrou geur
Ġrais ons
Ġunivers elle
Quel que
Ġchange ant
Ġchange ants
Ġchange ment
veill er
Ġrel Ã¨ve
Ġrel Ã¨ves
Ġprom et
Ġprom ise
Ġprom Ã¨ne
Ġprom Ã¨neront
Ġprom ontoire
Ġprop res
Ġparl a
Ġparl Ã©
Ġparl ant
Ġparl ons
Ġparl aient
Ġcrois sent
Ġcrois sante
Ġinnoc ence
Ġbru te
Ġbru ire
Ġbru tes
Ġbru ts
Ġbru yÃ¨re
imp ie
Ġclair s
Ġclair ons
Ġverme ille
Ġpasser ait
Ġcourt isane
Ġpetit es
Ġfuy ais
Ġfuy ons
Ġfuy ard
Ġfuy ants
Ġfuy ez
Ġdescend e
Ã©clair ant
ĠgÃ©nÃ©r al
Dis pers
Dis paraÃ®tre
Ni ais
Tr ansf
Tr anqu
Tr iste
Tr oupeau
Tr inquez
Tr ouva
ex il
ex clamer
ex cuse
ex piation
ex clure
ex emple
fl eur
ira ble
th es
th Ã©non
tent ive
uiv ait
ĠH ier
ĠH ommes
ĠH oche
ĠH oreb
Ġan imal
Ġlut tes
Ġlut tÃ©
Ġlut rins
Ġlaisse z
Ġsens Ã©e
Ġsoup ir
Ġsoup Ã§ons
Ã©tein drait
Ġpri er
Ġpri ais
Ġpri Ã¨res
Ġtel s
ĠmÃ© daille
Ġfour che
Ġfour bes
Ġfour reaux
Ġfort es
Ġfort une
arg ile
Ġbais ant
Ġbais ers
Ġband es
Ġband eroles
Ġbra ve
Ġbra vant
ĠbÃ©n is
ĠbÃ©n ir
ĠbÃ©n ite
Ġbatt ant
Ġbatt us
Ġbatt ants
Ġbatt erie
Ã¨v res
Ġautre fois
Ġchamp Ãªtre
Ġhaute Notre
Ġplan ant
Ġplan ait
Ġplan cher
Ġplan Ã¨tes
amb oyez
Ġrempl i
Ġrempl is
Ġrempl ie
Ġrempl ies
Ġrempl acÃ©
Ġrempl issent
onner as
ĠdÃ©g onfl
ĠdÃ©g oÃ»t
ĠdÃ©g uise
ĠdÃ©g radÃ©s
ĠdÃ©g uisÃ©s
ĠdÃ©g aÃ®nons
ĠdÃ©m on
ĠdÃ©m ontrent
ĠdÃ©m oli
ĠdÃ©ch irant
Ġsouffl Ã©
Ġtourn er
Ġtourn Ã©s
Ġtourn Ã©e
Ġtourn iez
Ġtourn oyante
Ġtourn oyant
Ġvieill issant
Ġtrib us
Ġtrib une
Ġblanch i
Ġblanch is
Ġblanch isse
Ġblanch Ã¢tre
Ġobscur s
ĠÃ©cum Ã©
ĠÃ©cum euses
Ġcompren ais
Ġcompren ds
Ġacc abl
Ġacc ourront
Ġacc ueille
Ġdivin isons
Ġpays ans
Ġfix Ã©
Ġfix ent
Ġfix ais
Ġfix Ã©e
Ġpoussi Ã¨res
Font aine
In fini
In fe
In sulte
In val
Mes ure
Mes sieurs
Nul le
Sa chons
aff aisse
aff irme
hab ille
hab ite
hab itude
hab iter
hab itais
ic ants
ic itÃ©s
lit z
mur ant
od iaque
ss ent
ym pe
Ãī chevel
Ãī den
Ãī bauche
Ãī coute
Ãī bloui
Ġz inc
Ġz Ã¨le
Ġz odiaque
Ġeu nuque
Ġeu ssent
Ġant ennes
Ġos Ã¢t
Ġos suaire
ĠLe bÅĵu
ĠLe clerc
Ġid Ã©e
Ġid Ã©es
Ġid oles
Ġid Ã©ales
Ġid olÃ¢tre
Ġloint aines
ĠdÃ©t ail
ĠdÃ©t roit
ĠdÃ©t resse
ĠdÃ©t ourne
ĠdÃ©t estez
Ġdern iers
Ġsout ient
Ġsout enir
Ġsout ane
Ġsaig nez
Ġsaig nant
Ġsaig nants
Ġsauv ages
Ã©ra ble
Ġcre usÃ©
Ġcre vÃ©
Ġcre usÃ©e
Ġcor se
Ġcor beau
Ġcor romp
Ġcin Ã©raire
Ġcit er
Ġcit adelle
Ġcat hol
Ġcat alan
Ġcat acombes
Ġcra vache
Ġcouv Ã©
Ġcouv ert
Ġcouv rant
Ġcouv rir
Ġcouv erte
Ġcav ales
Ġcav aliers
Ġcav alcades
Ġpil ier
Ġpur s
Ġpont s
Ġpont on
Ġpont ons
Ġpont ife
enn uis
enn ui
env ie
env ieux
env oie
env erra
env oies
ĠtÃ¢ te
ĠtÃ¢ che
ĠtÃ¢ ches
Ġtyr annie
Ġvou ant
Ġvou drait
Ġveu ille
Ġvil es
ĠvÃ©r itÃ©s
ĠvÃ©r itable
Ġvole z
Ġment i
Ġment ir
Ġment ez
ĠmÃ¢ chant
ĠmÃ¢ ture
ĠmÃ¢ choires
Ġmaud issez
ernes ey
Ġfan Ã©s
Ġfant aisie
Ġfam ille
Ġfam euses
Ġfam ilier
Ġazur Ã©
Ġazur Ã©e
arr Ãªte
arr osera
Ġbou ge
Ġbou ches
Ġbou gonner
Ġbou quet
Ġbou teille
Ġbor ne
Ġbor Ã©al
Ġbout ique
ĠbÃ¢t it
ĠbÃ¢t ardise
univers el
Ġjou g
Ġjou er
Ġjou ant
Ġjou ir
Ġjou ets
Ġjal ouse
Ġjal ousie
Ġri ait
Ġri che
Ġri ches
Ġro cher
Ġro chers
Ġro gnÃ©
Ġroule aux
ĠrÃ©p ands
ĠrÃ©p ublique
ĠrÃ©p andant
Ġrapp elles
Ġrapp elant
Ġrapp elais
Ġgre dins
Ġchans on
Ġhonn eurs
ĠÃ©ch auff
ĠÃ©ch appez
ĠÃ©ch afauds
Ġparfum Ã©s
Ġparfum Ã©es
Ã©tern elle
Ġsav ent
Ġsav ane
Ġsav ouraient
Ġcro chus
Ġcris per
Ġcris pÃ©e
Ġtromp e
Ġtromp eur
Ġtromp iez
Ġbron cher
ĠdÃ©b ile
ĠdÃ©b iles
ĠdÃ©l ivrance
ĠdÃ©l ivrer
ĠdÃ©l aissÃ©
ĠdÃ©p ose
ĠdÃ©p asse
ĠdÃ©p rav
ĠÃ©tinc elles
ĠÃ©tinc ela
ĠÃ©tinc elant
ĠÃ©tinc eler
ĠÃ©tinc elante
Ġaime z
Ġtomber as
Ġjourn aux
Ġjourn Ã©es
Ġdist ance
Ġdist inctement
Ġtourment Ã©s
Ġexp ire
Ġexp irant
Ġexp iÃ©s
Ġexp iat
Ġexp irants
Ġsangl ot
Ġsangl ante
Ġsangl ots
Ġpuiss ant
Ġpuiss ants
Ġpuiss ance
Ġchercher ont
Ġabje ct
Ġass is
Ġass ise
Ġass assins
Ġass ervir
Ġass oupi
Ġsembl ant
Ġsembl erait
Ġsembl ables
Ġlarges se
Ġmonstr uos
Ġinconn u
Ġinconn us
Ġinconn ue
Ġconfus es
Ġconfus Ã©ment
ĠfidÃ¨le ment
ĠdÃ©chire r
ĠsÃ©pul ture
Ac courez
Ac coupl
Ac coutum
Ac cept
Ad ieu
Ad ige
Ad orent
Ad orez
An tre
An ge
An glet
An drÃ©
Cr ois
Cr aint
Cr Ã©puscule
Cr omwell
Cour t
Cour ir
Cour aient
Cour bons
Gard e
Gard ons
Suiv i
Suiv is
Suiv ait
Suiv ront
ach Ã¨te
but ait
pt ion
vis ible
ĠF ange
ĠF erra
ĠTu renne
Ġann Ã©e
Ġann onÃ§
Ġlang ue
Ġlang age
ĠdÃ©tr uit
ĠdÃ©tr Ã´ne
ĠdÃ©tr uire
ĠdÃ©tr oussant
Ġdress ant
Ġdress ent
Ġsou mets
Ġsou dain
Ġsal ir
Ġsal uant
Ġcau sons
Ġcau ser
Ġcel te
Ġcamp agne
Ġpoin g
Ġpoin ts
ĠpÃ©n Ã©trant
ĠpÃ©n Ã©trÃ©
Ġpouss ait
Ġpouss ions
Ġtonn ent
Ġtonn ante
Ġtonn erre
Ġtonn elles
Ġvo Ã»tes
Ġvo Ã»te
Ġmou ille
Ġmou chards
Ġmens onges
Ġmoin dres
Ġmorte lle
Ġmauv aise
Ġmira cles
erc Ã¨de
Ġfil ou
Ġfil ets
Ġfau che
Ġfau bour
Ġfra yeur
Ġfol le
Ġfol ie
Ġfol lement
Ġquit tant
Ġquit tÃ©s
ĠaÃ¯ eux
Ġbomb ance
Ġbomb ardement
Ġbann i
Ġbann is
Ġbann iÃ¨re
Ġbann iÃ¨res
Ġlav Ã©
Ġlav ait
Ġlav euse
Ġlav abo
estin Ã©s
Ġru ine
Ġru ches
Ġru bans
Ġru olz
Ġrac es
Ġrac ontant
Ġroul Ã©
Ġroul er
Ġgorge ait
Ġenvol er
Ġchau miÃ¨re
Ġchau sses
ĠchaÃ® nes
Ġhau ts
Ġhau sse
ĠhaÃ¯ ra
ĠÃ©g al
ĠÃ©g lise
ĠÃ©v Ãªque
ĠÃ©v Ãªques
ĠÃ©v angile
ĠÃ©v anouie
amas tor
Ġdure ment
Ġrem ord
Ġrem onteras
Ġret ombe
Ġret enait
Ġret enu
Ġret omber
Ġprin ces
Ġprin temps
Ġore iller
Ġgronde z
Ġind omptable
Ġinst incts
Ġinqui ets
Ġinqui Ã©tude
Ġbran che
ĠbrÃ» lants
Ġfriss on
Ġfriss ons
ĠÃ©tr anges
ĠÃ©tr anger
Ġail Ã©es
Ġail leurs
acc ostant
acc ablement
ueill it
Ġdouc eurs
Ġsub it
Ġsub issant
ĠtraÃ® tres
ĠtraÃ® ner
Ġprobl Ã¨mes
Chant ant
Chant ez
Ġconte mple
ĠAl bert
ĠAl hambr
ĠAl lÃ©g
ĠAl aric
Ġterreur s
Ġeffar Ã©
ĠÃ©clat ants
ĠÃ©clat antes
Ġobstin Ã©
Ġobstin Ã©s
Ġvainc ue
ĠEsp ace
ĠEsp agne
Ġcerv elles
Ġattend ent
Ġattend ra
Ġdemeure r
ĠprÃ©f Ã¨res
ĠprÃ©f Ã©rer
ĠdÃ©fend is
Ġerrant es
Ġjuge a
Ġtribun s
Ġtribun al
ĠGrand gous
Ġpoitr ails
Ġmulti ple
Av aient
Br illante
Cont ents
Cont ente
Cont ract
Cri ant
Cri ez
Cri era
Fais ons
Gr Ã¨ce
Gr oupe
Gr Ã¢ce
Is raÃ«
Jus qu
Jus que
Jus tice
Mur murant
Mont er
Mont rant
Mont mar
Nom s
Ouv re
Ouv ert
Ouv rant
PÃ¢ lir
Pare ils
Sort ant
Trem per
lant Ã©
min Ã©
ry on
ry nÃ©
tend ront
ÃĬ tres
Ġir ont
ĠPar ieu
ĠPar thÃ©non
ĠNe wton
Ġlou a
Ġlou ant
Ġlou ange
Ġliv res
Ġliv rÃ©
Ġliv rÃ©e
ĠlÃ¨v ent
Ġdor ant
Ġdor Ã©s
Ġdor ure
Ġdra me
ouÃ¯ r
rel iefs
Ġst atues
Ġsoi ent
Ġsil encieux
Ġsau ge
Ġsau ve
Ġsau ront
Ġsomme illeront
Ġscr utin
Ġsaur ais
Ġsaur ait
Ġsaur ons
Ġcuis ant
Ġcuis tre
Ġcuis tres
Ġcours ier
Ġcueill ais
Ġpant ins
Ġpos Ã©
Ġpres ses
Ġpap e
Ġpap ier
Ġpap illon
ĠpÃ©r it
ĠpÃ©r ils
ĠpÃ©r issables
Ġpein tre
Ġpein tes
Ġpein drais
ense velir
encl ume
envol a
envol er
envol ent
Ġter mine
Ġter rass
Ġter minÃ©
Ġtend s
Ġtend u
Ġvom ir
Ġvaut our
Ġvall on
Ġvall ons
Ġvall Ã©e
Ġmas ques
Ġmas ures
Ġmas quer
Ġmange z
Ġmord ez
ĠmÃ©ch amment
Ġmouill er
Ġmouill Ã©s
Ġmouill aient
Ġmagn animes
Ġmoqu euse
Ġfri ands
Ġfri mas
Ġfri pier
Ġfier tÃ©
ĠfaÃ® tes
Ġfrap per
Ġfrap pas
Ġfrap pÃ©
Ġag itant
Ġbons hommes
Ġbass esses
Ġboul et
Ġlab eur
Ġlab oure
Ġlab arum
Ġlamb eau
tel s
inst ant
inst incts
inst ruit
Ġlev Ã©
Ġlev er
Ġlev ait
Ġjas aient
Ġris quai
ĠrÃ©s igne
ĠrÃ©s oudre
ĠrÃ©s ervions
Ġrap etisse
Ġrad ieuse
Ġromp t
Ġromp re
Ġromp ues
Ġaust Ã¨re
Ġaust Ã¨res
Ġaust ral
Ġgri ffe
Ġgri mauds
Ġgri mpantes
Ġgaz ons
Ġgaz ette
Ġgaz etier
Ġchr ysocale
Ġchas te
Ġchas tes
Ġchas sez
Ġheur te
Ġhur le
Ġhur lez
Ġhur lait
Ġhist oires
Ġplais irs
cep tÃ©
ĠÃ©l us
ĠÃ©l Ã©gances
ĠÃ©l oignÃ©e
ĠÃ©tein te
ĠÃ©chevel Ã©s
ĠÃ©chevel Ã©e
ĠÃ©chevel Ã©es
Ġreg istre
Ġreg orge
Ġreg ret
ĠprÃªt res
Ġpard on
Ġpard onne
Ġpard onnÃ©
Ġpours uis
Ġpours uit
Ġpours uivait
ĠflÃ©tr it
Ġoff rez
Ġsec ours
Ġsec onde
Ġsec ourt
Ġsecou es
Ġtransf orme
Ġint erdit
Ġint Ã©rÃªts
Ġint ercÃ¨de
immens itÃ©s
ĠdÃ©c ombre
ĠdÃ©c ouvrent
ĠdÃ©c ouverte
ĠdÃ©cl in
bler aient
ĠDonne z
Dev iens
Dev rait
Dev anÃ§ant
Ġaid Ã©
Ġaid er
Ġaid ant
emport ait
emporte ment
appro chais
accou de
accou der
accou plait
ĠSat urne
ĠSpar tac
igu ait
Ġmarch ands
Ġdiss ous
Ġdispers Ã©
Ġdispers er
Ġdispers aient
Ġvert us
Ġvert iges
Ġsup pose
abri te
Char me
Char les
Char latans
Ġconv ie
Ġconv ient
Ġconv ulsi
ĠAth os
ĠAth Ã¨ne
ĠAth Ã¨nes
ĠBabel s
Ġsolit aire
Ġsolit aires
Ġsolit udes
obscur itÃ©
ĠMar ie
ĠMar ceau
ĠMar seill
Ġeffront Ã©
Ġresp irais
Ġresp irer
Ġresp irable
ĠrÃ©veill Ã©
ĠÃ©per du
ĠÃ©panou i
ĠÃ©panou is
ĠÃ©panou ie
ĠVeuill ots
Ã©cout erait
Ġcourb Ã©
Ġcourb ons
Ġcourb ez
Ġrayonne ment
Ġexil Ã©e
ĠPh oebÃ©
ĠPh ilist
ĠPh rynÃ©
Ġfeuill age
Ġfeuill ets
Ġfeuill eton
ignor ais
Ġbast ion
Ġlumin euse
Ġcoll ine
Ġcoll iers
Ġcoll ines
Ġcompagn ons
Ġrenc ontres
effeuill er
Ġcontent es
Ġinsul tÃ©s
Ġinsul tent
Ġinsul tante
ĠdiffÃ© rer
Ġsculp tes
Ġcombatt is
Ġcombatt aient
Ġcombatt Ã®mes
Ġmurmur ant
Ġmurmur Ã©s
Ġmurmur aient
ĠcrÃ©at ures
Ġador Ã©
Ġador ant
Ġador ait
Ġdemand e
ĠprÃ©d estine
ĠprÃ©d icants
ĠprÃ©d estinÃ©s
Ġprosp Ã©ritÃ©
Ġembr asement
Ġembau mÃ©e
Ġcapit aine
Ã©vanou it
Ã©vanou ir
Ã©vanou isse
ĠmÃªl ent
ĠmÃªl ions
ĠmÃªl Ã©es
ĠconquÃ©r ants
Ġphil istins
Ġrelig ieuse
ĠmÃ©pris Ã©
Ġaccompl is
Ġmitr ailles
ĠdÃ©bord ant
ĠdÃ©bord Ã©s
ĠdÃ©bord Ã©es
Ġdistingu ons
Ġindign Ã©
Ġindign er
Ġindign ation
Ġcontempl er
Ġcontempl ais
Ġcontempl ateur
Ġmultipl ie
Ġmultipl ies
Ġmultipl iÃ©s
Salu Ã©
Salu ons
Salu eront
Ġcadav re
Ġnoct urnes
Ġhagard e
ĠreprÃ©s ailles
ĠreprÃ©s entent
ĠreprÃ©s entants
Ap pren
Ap paraiss
As mod
At tentive
At tendront
Aur a
Aur iol
Alle z
Alle magne
Ass ise
Ass oupissez
Cl ouÃ©e
Cl oud
Cal omniez
Cal mez
Col omb
Col osse
Couv rant
Couv erte
Conte mple
Conte mplateurs
DÃ©cl are
DÃ©cl arent
Ex ploitant
Ex ceptÃ©
Empl is
Empl ir
Fl ottes
Fl amboyez
Feu illes
Four mis
Four mille
Gu erre
Gu ernesey
Hur lant
Hur laient
Heure ux
Heure use
Jet Ã©e
Jet tent
Met tra
Met tait
Mor ne
Mor dre
MÃª ler
MÃª lant
Ple in
Ple ine
Ris quez
Ris quant
Rend ent
Rend ra
Sem ble
Sem blaient
Temp s
Temp Ãªte
Vi ole
Vi ctoire
Viv ant
Viv ants
Voy ant
Voy ait
Vid era
Vid ocq
Volt a
Volt airi
ah issons
di acre
hym ne
hym nes
iqu ement
iat han
pÃ© faits
tern itÃ©
ÃĤ me
ÃĤ mes
Ġus Ã©e
Ġus Ã©es
Ġang le
Ġang oisses
ĠFr anÃ§ais
ĠFr ankl
ess aim
esclav es
esclav age
Ġli bres
Ġli Ã¨vres
Ġdr Ã´le
Ġdr Ã´les
anim al
anim aux
Ġsom mets
Ġsom met
Ġsat irique
Ġsat isfasse
Ġsot tise
Ġsim ple
Ġsim oun
Ġsoul iers
Ġsoul Ã¨verez
Ġsouill Ã©
Ġsouill Ã©e
Ġscep tre
Ġscep tres
Ã©qu itÃ©
Ã©qu ilibre
Ã©cr oule
Ã©cr aserai
Ã©blou issant
Ã©blou issement
Ġcu ve
Ġcu ivre
Ġcas que
Ġcas ernes
Ġcul asse
Ġcul butait
Ġcop iant
Ġcop iÃ©s
Ġcale Ã§ons
Ġcaf ards
Ġcaf tans
Ġcave au
Ġpan ique
Ġpor c
Ġpor phyre
Ġpress a
Ġpress Ã©s
Ġpubli c
Ġpubli cains
envelop pe
envelop pent
Ġtent a
Ġtent ions
Ġtit re
Ġtit ans
Ġtais ons
Ġtal ent
Ġtal apoins
Ġtire nt
Ġtress ailles
Ġtress aillir
ĠtiÃ¨ de
ĠtiÃ¨ des
Ġvant er
Ġvant eront
Ġval et
Ġval ets
Ġvien drait
Ġvien dra
ĠvÃ©n Ã¨re
ĠvÃ©n Ã©rable
Ġvib rait
Ġvib ras
Ġvautre r
Ġmin ces
Ġmin utie
Ġmir oir
Ġmir oirs
Ġmag ique
Ġmag istrat
Ġmors ure
Ġmyr te
Ġmyr rhe
erÃ§ ues
Ġfard Ã©
Ġfav eurs
Ġfav ori
Ġfass ent
Ġfass ions
ĠfaÃ§ on
ĠfaÃ§ ons
Ġact eur
Ġact ions
Ġabreuv Ã©
Ġabreuv oirs
Ġnar quois
Ġnar guer
Ġnau fra
Ġnau sÃ©e
Ġnouv el
Ġnouv elles
arra chant
Ġbo euf
Ġbo hÃ¨me
Ġbri ck
Ġbri gands
ĠbÃ» che
ĠbÃ» cher
Ġbaig ne
Ġbaig naient
Ġlass er
Ġlass Ã©s
inf Ã¢me
inf Ã¢mes
ĠÃī den
ĠÃī ternitÃ©
Ġjaill i
Ġjaill it
asp irais
asp ic
aub riand
aub Ã©pine
aul ne
aum Ã´ne
Ġrom ain
Ġrom ance
Ġrus se
Ġrus tiques
Ġrav i
Ġrav in
Ġrang s
Ġraf ale
Ġraf raÃ®
Ġaud ace
Ġaud acieux
Ġgal ant
Ġgal Ã©riens
ĠgÃ©m it
ĠgÃ©m ir
Ġgib et
Ġgib ets
Ġgonfl ent
Ġgonfl ait
Ġense igne
Ġense veli
Ġchois i
Ġchois is
ĠchÃ¢ teaux
ĠchÃ¢ tiÃ©
Ġchass eur
Ġchass iez
Ġchaud ement
ĠhÃ¢ tÃ©
ĠhÃ¢ lÃ©
Ġhym ne
Ġhym nes
Ġplu ie
Ġplu mes
Ġplat es
Ġplong er
Ġplong eur
ĠÃ©b ahis
ĠÃ©b ahissons
ĠÃ©tre int
ĠÃ©tre intes
ĠÃ©cou te
ĠÃ©cou tez
ĠÃ©plor Ã©e
ĠÃ©plor Ã©es
ambr oisie
Ġredout Ã©e
Ġredout able
Ġrejet ons
Ġrejet tera
ĠprÃª chant
ĠprÃª chent
ĠprÃ©t oire
ĠprÃ©t ention
Ġcein te
Ġcein ture
Ġpourrit ures
ĠflÃ©t ri
ĠflÃ©t ries
Ġflatt er
Ġflatt Ã©s
Ġsap in
Ġsap ins
Ġcroul a
Ġcroul ante
Ġcramp onne
Ġcramp onneras
ĠtrÃª ve
ĠtrÃª ves
ĠtrÃ©p ieds
ĠtrÃ©p igner
Ġintr us
Ġintr Ã©pides
Ġinhum ain
Ġinhum ains
Ġinvis ible
Ġinvis ibles
ĠinouÃ¯ e
Ġbrus que
Ġbrus quement
Ġbrill ant
Ġbrill aient
Ġbroc art
Ġbroc anteurs
Ġbrouill ard
Ġbrouill ards
Ġfranch ir
Ġfranch ises
ĠdÃ©n igre
ĠdÃ©n aturÃ©s
ĠdÃ©rob Ã©
ĠdÃ©rob er
idi ots
ĠÃ©tonn ent
ĠÃ©tonn ons
ĠÃ©touff er
ĠÃ©touff ant
apais er
apais ement
avid itÃ©
Ġsiff le
Ġsiff lets
ĠCe ci
ĠSam os
ĠSam son
Ġgliss er
Ġgliss Ã©e
Ġesqu if
Ġesqu ifs
Ġdistr aire
Ġdistr aits
Ġdonj on
Ġdonj ons
Ġarg ot
Ġarg ile
ador ais
ador able
ĠclÃ©m ence
ĠclÃ©m atite
Ġsucc Ã¨s
Ġsucc ombe
Ã©par able
Ã©par gne
Ã©paiss eur
Ã©paiss issant
Ġavent ure
Ġavent urier
Ġprod ige
Ġprod iges
Ġvoyag eur
Ġvoyag eurs
Ġconc ert
Ġconc ierges
ĠAd am
ĠAd amastor
ĠBour se
ĠBour bon
ĠBeau har
ĠBeau vais
Ġcharge ant
Friss onner
Friss onnaient
obstin ent
obstin ation
Ġeffl eure
Ġeffl uves
Ġserv ante
Ġserv ice
Ġressort i
Ġressort ent
ĠrÃ©volut ions
ĠrÃ©volut ion
Enf ant
Enf ants
Entend ait
Ã©criv ais
Ã©criv ain
Ġextr Ãªme
Ġextr Ã©mitÃ©s
Ġdict ait
Ġdict ateurs
ĠÃ©claire r
ĠÃ©clair Ã©
ĠÃ©clabouss ait
ĠÃ©clabouss ures
Ġtraver se
Ġtraver sez
Ġabat tu
Ġsouri ais
Ġsouri aient
Ġobsc ure
Ġobsc Ã¨ne
Ġlugu bre
Ġlugu bres
Ġperc Ã©s
Ġperc era
Ġvisionn aire
Ġvisionn aires
ĠÃ©cart aient
Ġviol erait
Ġviol ettes
Ġcarref our
Ġcarref ours
Ġrentre r
Ġrendr as
Ġrendr ont
Secou ant
Secou ait
Ġacclam ation
Ġacclam ations
Ġaccro che
Ġaccro chent
ĠrevÃªtu es
Ġreconn ais
Ġreconn aÃ®tre
Ġrepouss ions
Ġrepouss era
Ġfoudr oyez
Ġfoudr oyÃ©e
Ġinfortun Ã©s
Ġinfortun Ã©es
Ġimmens itÃ©
Ġimmens itÃ©s
Ġimmob ile
Ġimmob iles
Ġcompl et
Ġcompl Ã¨tes
Ġcommence ments
ĠfiÃ¨v re
ĠfiÃ¨v res
Ġincert aine
Ġincert aines
ĠembÃ» che
ĠembÃ» ches
Ġempl issez
Ġempl issait
Ġemprein te
Ġemprein tes
ĠlÃ¢ch ement
ĠlÃ¢ch etÃ©
Ġspect res
Ġspect acle
Ġcyn ique
Ġcyn iquement
Ġcapti ve
Ġcapti fs
Ġvitre ux
ĠdÃ©vor Ã©es
ĠdÃ©vor antes
Ġessay a
Ġessay Ã©
Ġimpur s
Ġappel Ã©s
Pleure r
Ġroug i
Ġroug issant
ĠpropriÃ©t Ã©
ĠpropriÃ©t Ã©s
Ġbrav aient
Ġbrav oure
Ġeffray Ã©s
Ġeffray ants
affront s
Ġfanf are
Ġfanf ares
arrÃªt a
arrÃªt aient
ĠrÃ©pond s
ĠrÃ©pond ra
ĠsÃ©d uit
ĠsÃ©d uise
ĠpÃ©nÃ©tre r
ĠpÃ©nÃ©tre rait
Ġmoucher on
Ġmoucher ons
Ġmortel s
Ġquitt ais
Ġquitt Ã¨rent
Ġfrissonne ments
accord ez
Murmure r
Trembl ants
Trembl ante
Ġirr itÃ©s
Ġirr Ã©parable
Ġdrag on
Ġdrag ons
Ġscrup ules
Ġscrup uleux
ĠchrÃ©t ien
ĠchrÃ©t iens
ĠdÃ©clare z
Ġsuppl iant
Ġsuppl ice
ĠÃ©perd ue
ĠÃ©perd ues
Ġrencontre r
ĠdiffÃ©ren ce
ĠdiffÃ©ren tes
Ġembrasse ment
Ġembrasse ments
Ġphilosop he
Ġphilosop hies
Ġlinceul s
Ġpopul i
Ġpopul ace
Ġroyal istes
Ġgrave ment
Ġcourrouce z
Ġprostitu Ã©
Ġprostitu Ã©es
Ġsaltimban que
Ġsaltimban ques
Af rique
Am assent
Bat aillon
Bles sant
Batt ue
Bourd onner
Bate leurs
Berc Ã©
Co teaux
Cy niques
Com mencer
Cin q
Cons erve
Cond amne
Cot ons
Cro Ã®t
CaÃ¯ n
Di x
Dou bler
DÃ© cembre
Dus ses
DÃ©s ormais
DÃ©es se
DÃ©p asser
DÃ©g uisant
DÃ©ch ire
Divers es
Eg ine
Er rant
Es prit
Epar s
Eblou is
Etein t
Emp ire
Esp agne
Elys Ã©e
Empe reur
Echange ant
Fai te
Fer tile
Fat iguait
Fol le
Ful ton
Foul ant
Gl obes
Get hs
Gri ffonne
GÃ©m issait
Gorg Ã©s
Gonfl aient
Galv ani
Har fleur
Hom Ã¨re
HÃ¢ te
Honn eur
Hum anitÃ©
Iv res
Iag o
Impl orer
Int erro
Ign ace
Joy euses
Ly cur
Liv rÃ©e
LÃ¢ ches
Lim itÃ©s
Lang ue
Laiss ant
Mou rez
Man que
Ment ir
Min grat
Mons ieur
Main te
Mir oirs
MÃ©c onnaÃ®t
Maud its
Noir ciss
Nag uÃ¨re
NÃ©r on
Narc isse
Ol ympe
Or Ã©gon
Po Ã¨te
Pit res
Pat rie
Pend ent
Pens Ã©
Pay sanne
Pass ant
Poul ailler
Pyr amides
Pouss ent
Perc Ã©s
Res plendir
Ren aÃ®tr
Ret ournons
RÃ¨ gnent
RÃª vant
Rem uer
Riv al
Rac ine
RÃ©p and
Rass asiÃ©s
Rapp elant
Sil ence
Sain ts
Souff rons
Sac rÃ©e
Stu pÃ©faits
Sab res
Sole il
Spar te
Subli me
Tri omphe
TÃ¢ chant
Tort ueux
Toit s
Tint ait
Tein ts
Trav aillez
Ug olin
Ve illez
Ven ez
Vis ible
Vag ues
Veul ent
abreuv ait
bÃª che
cend us
dest al
del Ãł
fatt o
hom Ã©rique
hit ryon
hist rion
ris ie
soy eur
spe are
uÃ©t udes
vag ant
ymp ique
Ġais Ã©ment
Ġois ives
Ġiv resses
Ġol ympique
Ġut ile
Ġiss ues
Ġord res
ĠIn visible
Ġ18 55
ĠKlÃ© ber
ĠUlys se
ĠXain traille
Ġwag on
esqui ve
Ġlan cÃ©
Ġlun ettes
Ġlend emain
Ġloy autÃ©
Ġlux e
Ġlimp ide
Ġdom inent
Ġdent elÃ©es
Ġdam nÃ©
Ġdim anche
Ġdig Ã¨rent
Ġdoc trine
Ġdry ade
Ġsel on
Ġsus pendue
ĠsÃ©r Ã©nitÃ©
Ġsop histe
Ġsaut eur
Ġstr ophes
ĠsÃ©ch Ã©
Ġsph Ã¨res
Ġsyl vain
Ġsorn ettes
Ġspir ales
Ã©veill aient
Ã©qui pÃ©e
Ã©dif ice
Ġcle fs
Ġcos tumes
Ġcand ide
Ġcond uit
Ġciv iles
Ġcim etiÃ¨re
Ġcag ot
Ġcid re
Ġcens ure
Ġcrap ules
Ġcert ains
Ġcress on
Ġcuiv res
Ġcach ot
Ġculp a
Ġcoutum iÃ¨re
Ġcacher ont
ĠcÃ©les te
Ġpent es
Ġpun ir
Ġpin ce
Ġpau piÃ¨res
Ġpus illanimes
ĠpÃª cheurs
Ġpol ice
ĠpÃ©t ri
Ġpill ards
Ġpav Ã©
Ġpac ifique
ĠpaÃ® rai
Ġpoup Ã©es
Ġpist il
Ġpamp hlet
ĠpÃ©ri ront
ĠpÃ©tr is
ĠpiÃ© destal
Ġpanne aux
ĠpiÃ¨ ge
Ġpsau me
enne mi
enorg ueillit
engouff rer
Ġtur pitude
Ġtort urÃ©s
Ġtot al
Ġtim brÃ©
Ġtum ulte
Ġtue z
Ġtors es
Ġtair ait
Ġtiss us
ĠtÃ©m oin
Ġtern i
Ġtaud is
Ġtaill is
ĠthÃ© Ã¢tre
Ġtonner res
Ġthaum aturge
Ġtyph ons
Ġvel ours
ĠvÃª pres
ĠvÃ©t Ã©rans
Ġvap eur
Ġvac ille
Ġvig ile
ĠvÃªte ments
ĠvÃ©l oces
ĠvÃ©c u
ĠvÃ©g Ã©tation
Ġvann Ã©s
Ġmans uÃ©tudes
Ġmand at
ĠmÃ©s allier
Ġmol lement
Ġmoit iÃ©
Ġmette z
Ġmang Ã©e
ĠmÃ©l ange
ĠmÃ» rir
Ġmass acre
Ġmist ral
Ġfest ins
Ġfos soyeur
ĠfÃª lure
ĠfÃ¢ chons
Ġfoy ers
ĠfÃ©t ide
Ġfure ur
ĠfÃ©l icitÃ©s
Ġfoul ait
Ġfif re
ĠfÃªt Ã©s
Ġfauv ette
Ġfaqu in
Ġquin ze
Ġquad rilles
Ġach arnÃ©e
Ġaff ront
Ġasi le
Ġagr andie
Ġagu erries
Ġaffre use
Ġafri cains
Ġnour rir
Ġnas eaux
Ġnoy Ã©
Ġnum ides
ĠnÅĵ ud
ĠnÃ©g oce
Ġnaiss ance
Ġnorm al
Ġnup tiale
ĠnaÃ¯ fs
ĠnÅĵu ds
Ġneust riens
arri Ã©rÃ©
arche vÃªque
arro gance
arriv ais
Ġbur ine
ĠbÃ¨ gue
Ġbiv ouac
ĠbÃ¢ clez
Ġbours es
Ġbouff ons
Ġbig otes
Ġbad auds
Ġboule aux
Ġbaud ets
Ġbouill ir
Ġbaqu et
Ġbarr Ã©e
Ġbret on
ĠbÅĵu fs
Ġbanqu ets
Ġbesti aux
Ġbell uaire
Ġlaud amus
entra cte
entÃªt er
orch estres
inim itiÃ©
innoc ent
innomb rable
invoqu ais
ĠjÃ©s uite
Ġjoy euse
Ġjui fs
Ġjarg onnant
Ġram Ã©es
Ġrir ait
Ġrouv raient
Ġrong ent
Ġraill eur
Ġrud ement
Ġraff inements
ĠrhÃ©t eur
Ġdesse ins
ĠdessÃ©ch Ã©es
Ġaudit oire
Ġautri chiens
ĠaumÃ´ nier
Ġgol fe
Ġgren iers
Ġgrap pes
Ġgaill ards
Ġgagn ons
ĠgoÃ» ts
osth Ã¨nes
Ġenge ance
Ġenri chi
Ġenchant Ã©
Ġenven imÃ©e
Ġenvir onnÃ©s
Ġenvelop pe
ĠenchaÃ® nÃ©
Ġensang lantÃ©
Ġenregist rÃ©
Questi onnant
Ġchat ouille
ĠchÃ©t ive
Ġchard ons
Ġchim Ã¨re
ĠchÃ©r ubins
Ġchac als
ĠchÃ©ri e
Ġchiffre r
Ġchenap ans
Ġhir ondelles
ĠhÃ´ tels
Ġhab itude
ĠhÃ©m isphÃ¨re
Ġhord e
Ġhale ines
Ġhall iers
Ġhoqu et
Ġhenn ir
Ġhypoc risie
Ġharmon ieuse
Ġhomic ides
Ġhourra h
Ġplum ages
ĠplÃ©n itude
Ġpliss er
Ġplaig nons
ĠÃ©cr aser
ĠÃ©br anler
ĠÃ©mer veiller
ĠÃ©grat igne
ĠÃ©lect eur
alti Ã¨re
amoin drir
Ġrecl oue
Ġrepl iÃ©
Ġrecou chÃ©e
Ġretr oussant
Ġrepro chez
Ġredes cendus
Ġreparaiss ent
Ġredin gotes
Ġsurhum ain
Ġsurpren ant
Ġestrop ier
Ġestomac s
emmen er
embus cades
Ġprol onge
Ġprouv er
ĠprÃªte z
ĠprÃ©p are
ĠprotÃ© geas
Ġpruss ien
irrit er
Ġparod iez
ĠjeÃ» ne
Ġflag rant
ĠflÃ©ch it
Ġobli que
Ġorem us
Ġoeill ets
Ġsecr Ã¨te
Ġsepte mbre
Ġgrot te
Ġgroup es
Ġgrinc er
Ã©touff ait
Ã©triv iÃ¨re
Ġcraig nant
Ġcroqu ant
ĠtrÃ´ nes
ĠtrÃ©b uche
Ġincl inÃ©
Ġinap erÃ§ues
ĠintÃ© rieures
Ġinces samment
Ġinvin cibles
Ġbrum euses
Ġbrouss aille
Ġfratern els
impl ore
implor ais
imprud ent
ĠdÃ©ro be
illum inent
agenouill ais
ĠDÃ©m osthÃ¨nes
ĠDÃ¦mon em
ĠDÃ©plor able
ĠDeucal ion
ĠDelang le
ĠDombid au
Ġpeupl Ã©e
Ġtouchant es
ĠÃ©troi te
applaud is
appart ient
Ġmatel ots
Ġmachinale ment
acclam ations
Ġsign aux
ĠCoc agne
ĠCord oues
ĠCyr us
ĠCaÃ¯ phe
ĠCommence ment
ĠCaude bec
ĠCarra re
ĠCalv aire
ĠCÃ©dr on
ĠCorin thes
ĠCitoy ens
ĠCaucas e
ĠCurti us
ĠContra fatto
Ã©nig me
ĠSoc rate
ĠSib our
ĠSod omes
ĠScÃ© vola
ĠScap in
ĠShak speare
ĠSucc Ã¨s
ĠSarag osse
ĠSalam ine
ĠSardaig ne
Ġescad ron
Ġesclav es
Ġescal adÃ©
Unbouvre uil
Ġarro gances
Ġarchip el
Ã©loqu ence
adhÃ©s ion
Ġclairi Ã¨re
Ġameut Ã©e
Ã©paul ette
abje ction
abrit erai
Ġproclam ant
Charg Ã©
ĠenfonÃ§ ant
Ġimber bes
Ġimprob itÃ©s
Ġimagine z
Ġconfin er
assass inat
assaisonne ment
ĠAlle z
ĠAmp hitryon
ĠAlex andre
ĠAuster litz
ĠBob Ã¨che
ĠBaig nÃ©
ĠBret ons
ĠByz ance
ĠBancro ft
ĠBÃ©hÃ©m oth
ĠBalbe ck
ĠBabyl one
ĠRob espierre
ĠRabel ais
ĠRiance y
ĠRÃ©volut ion
ĠRÃ©sign Ã©e
ĠcharanÃ§ on
Ġcharret Ã©e
Carref our
obsc ure
ĠMyr midon
ĠMales herbe
ĠMagn an
ĠMah omet
ĠMoÃ¯ se
ĠMess aline
ĠMorn y
ĠMontrou ge
ĠeffrÃ©n Ã©
Ġrespe cts
Ġressem bleraient
ĠrÃ©fl Ã©chissons
ĠrÃ©uss ir
ĠÃ©phÃ©m Ã¨re
ĠÃ©pithal ame
ĠJup iter
ĠJourd ain
ĠVolt aire
Ġalcy ons
Ġallelui a
EnchaÃ® nÃ©s
Ã©gorg Ã¨rent
Ġextra vagant
Ġextas es
Ġdiaphan es
ĠPro grÃ¨s
ĠPlat on
ĠProb itÃ©
ĠProc uste
ĠPatouill et
Ġappro cher
Ġaphor ismes
ĠaperÃ§ oit
Ġapplaud issez
Ġaperce vons
ĠapothÃ© ose
ĠÃ©clip sÃ©
Ġabhor rez
Ġabsol u
Ġabandonn Ã©e
ĠobsÃ© dÃ©e
Ġobstac les
ĠTiqu etonne
ĠTorton i
ĠThÃ¨ be
ĠTrest aillon
ĠTartu ffe
Ġluzer ne
Ġperven ches
Ġperfe ctions
Ġaspire nt
ĠÃ©caill Ã©e
ĠGarg antua
ĠGeor ges
ĠGlad stone
ĠGomor rhe
Ġvicom te
Ġattein dre
incommens urable
ĠhÃ©roÃ¯ ques
Ġconstel lations
Ġconstern Ã©
allong er
ĠLÃ©v iathan
ĠLÃ©on idas
ĠLillip ut
Ġorph elines
ĠorviÃ©t an
ĠdÃ©shon orer
Ã©chaf aud
Ã©chauff e
Ġaccoupl Ã©s
Ġentrepont s
effaÃ§ ait
effroy ables
ĠEscur ials
ĠExÃ©c utons
ĠNÃ©b uleuses
ĠNemro d
Ġreconqu iers
ĠparthÃ©n ons
Ġinflex ible
Ġscint illaient
Ġscarab Ã©es
Ã©clip seront
Ġrefleur ir
Ġattaqu ent
Protes te
Prod igieux
Pruss iens
PrÃ©ci pice
PromÃ©t hÃ©e
Ġcommun ique
Ġcalcul ais
Ġadmir ons
ĠprÃ©ju gÃ©s
ĠprospÃ¨re nt
Ġproscri ption
Ġincompl Ã¨te
Ġempoisonn eurs
Ġcymb ales
Ġvexill aire
Ġaigref ins
ĠChate aubriand
ĠChÃ©op s
Redout Ã©s
Repos ez
ĠtÃ©nÃ©bre ux
ĠvendÃ©mi aire
Ġbalbut ier
Ġimpossi ble
Ġappuy Ã©
Ġphras e
Dispers Ã©s
Transf iguration
Tranqu ille
ĠdÃ©gonfl ais
Ġaccabl Ã©e
Infe cte
Inval ides
Ãīchevel Ã©
ĠLebÅĵu f
Ġcorromp ues
Ġcathol ique
ĠÃ©chauff ait
ĠdÃ©prav Ã©s
Ġexpiat oire
Ġmonstruos itÃ©s
Accoupl ant
Accoutum ons
Accept ons
Anglet erre
ĠFerra re
ĠannonÃ§ ait
Ġfaubour gs
ĠAlhambr as
ĠAllÃ©g resse
ĠGrandgous ier
Contract ent
IsraÃ« l
Montmar tre
PÃ¢lir ait
Ġterrass Ã©
ĠSpartac us
Ġconvulsi f
ĠMarseill aise
ĠPhilist in
Appren ds
Apparaiss ait
Asmod Ã©e
Fourmille ment
Voltairi ens
ĠFrankl in
Ġnaufra ges
ĠrafraÃ® chir
ĠÃ©bahis sez
ĠBeauhar nais
Geths Ã©mani
Interro ge
Lycur gue
Noirciss eurs
RenaÃ®tr ait
